{
  "version": "1.0",
  "truncation": null,
  "padding": null,
  "added_tokens": [
    {
      "id": 0,
      "content": "<unk>",
      "single_word": false,
      "lstrip": false,
      "rstrip": false,
      "normalized": false,
      "special": true
    },
    {
      "id": 1,
      "content": "<s>",
      "single_word": false,
      "lstrip": false,
      "rstrip": false,
      "normalized": false,
      "special": true
    },
    {
      "id": 2,
      "content": "</s>",
      "single_word": false,
      "lstrip": false,
      "rstrip": false,
      "normalized": false,
      "special": true
    },
    {
      "id": 3,
      "content": "<pad>",
      "single_word": false,
      "lstrip": false,
      "rstrip": false,
      "normalized": false,
      "special": true
    },
    {
      "id": 4,
      "content": "<mask>",
      "single_word": false,
      "lstrip": false,
      "rstrip": false,
      "normalized": false,
      "special": true
    },
    {
      "id": 70000,
      "content": "<unused0>",
      "single_word": false,
      "lstrip": false,
      "rstrip": false,
      "normalized": false,
      "special": true
    },
    {
      "id": 70001,
      "content": "<unused1>",
      "single_word": false,
      "lstrip": false,
      "rstrip": false,
      "normalized": false,
      "special": true
    },
    {
      "id": 70002,
      "content": "<unused2>",
      "single_word": false,
      "lstrip": false,
      "rstrip": false,
      "normalized": false,
      "special": true
    },
    {
      "id": 70003,
      "content": "<unused3>",
      "single_word": false,
      "lstrip": false,
      "rstrip": false,
      "normalized": false,
      "special": true
    },
    {
      "id": 70004,
      "content": "<unused4>",
      "single_word": false,
      "lstrip": false,
      "rstrip": false,
      "normalized": false,
      "special": true
    },
    {
      "id": 70005,
      "content": "<unused5>",
      "single_word": false,
      "lstrip": false,
      "rstrip": false,
      "normalized": false,
      "special": true
    },
    {
      "id": 70006,
      "content": "<unused6>",
      "single_word": false,
      "lstrip": false,
      "rstrip": false,
      "normalized": false,
      "special": true
    },
    {
      "id": 70007,
      "content": "<unused7>",
      "single_word": false,
      "lstrip": false,
      "rstrip": false,
      "normalized": false,
      "special": true
    },
    {
      "id": 70008,
      "content": "<unused8>",
      "single_word": false,
      "lstrip": false,
      "rstrip": false,
      "normalized": false,
      "special": true
    },
    {
      "id": 70009,
      "content": "<unused9>",
      "single_word": false,
      "lstrip": false,
      "rstrip": false,
      "normalized": false,
      "special": true
    },
    {
      "id": 70010,
      "content": "<unused10>",
      "single_word": false,
      "lstrip": false,
      "rstrip": false,
      "normalized": false,
      "special": true
    },
    {
      "id": 70011,
      "content": "<unused11>",
      "single_word": false,
      "lstrip": false,
      "rstrip": false,
      "normalized": false,
      "special": true
    },
    {
      "id": 70012,
      "content": "<unused12>",
      "single_word": false,
      "lstrip": false,
      "rstrip": false,
      "normalized": false,
      "special": true
    },
    {
      "id": 70013,
      "content": "<unused13>",
      "single_word": false,
      "lstrip": false,
      "rstrip": false,
      "normalized": false,
      "special": true
    },
    {
      "id": 70014,
      "content": "<unused14>",
      "single_word": false,
      "lstrip": false,
      "rstrip": false,
      "normalized": false,
      "special": true
    },
    {
      "id": 70015,
      "content": "<unused15>",
      "single_word": false,
      "lstrip": false,
      "rstrip": false,
      "normalized": false,
      "special": true
    },
    {
      "id": 70016,
      "content": "<unused16>",
      "single_word": false,
      "lstrip": false,
      "rstrip": false,
      "normalized": false,
      "special": true
    },
    {
      "id": 70017,
      "content": "<unused17>",
      "single_word": false,
      "lstrip": false,
      "rstrip": false,
      "normalized": false,
      "special": true
    },
    {
      "id": 70018,
      "content": "<unused18>",
      "single_word": false,
      "lstrip": false,
      "rstrip": false,
      "normalized": false,
      "special": true
    },
    {
      "id": 70019,
      "content": "<unused19>",
      "single_word": false,
      "lstrip": false,
      "rstrip": false,
      "normalized": false,
      "special": true
    },
    {
      "id": 70020,
      "content": "<unused20>",
      "single_word": false,
      "lstrip": false,
      "rstrip": false,
      "normalized": false,
      "special": true
    },
    {
      "id": 70021,
      "content": "<unused21>",
      "single_word": false,
      "lstrip": false,
      "rstrip": false,
      "normalized": false,
      "special": true
    },
    {
      "id": 70022,
      "content": "<unused22>",
      "single_word": false,
      "lstrip": false,
      "rstrip": false,
      "normalized": false,
      "special": true
    },
    {
      "id": 70023,
      "content": "<unused23>",
      "single_word": false,
      "lstrip": false,
      "rstrip": false,
      "normalized": false,
      "special": true
    },
    {
      "id": 70024,
      "content": "<unused24>",
      "single_word": false,
      "lstrip": false,
      "rstrip": false,
      "normalized": false,
      "special": true
    },
    {
      "id": 70025,
      "content": "<unused25>",
      "single_word": false,
      "lstrip": false,
      "rstrip": false,
      "normalized": false,
      "special": true
    },
    {
      "id": 70026,
      "content": "<unused26>",
      "single_word": false,
      "lstrip": false,
      "rstrip": false,
      "normalized": false,
      "special": true
    },
    {
      "id": 70027,
      "content": "<unused27>",
      "single_word": false,
      "lstrip": false,
      "rstrip": false,
      "normalized": false,
      "special": true
    },
    {
      "id": 70028,
      "content": "<unused28>",
      "single_word": false,
      "lstrip": false,
      "rstrip": false,
      "normalized": false,
      "special": true
    },
    {
      "id": 70029,
      "content": "<unused29>",
      "single_word": false,
      "lstrip": false,
      "rstrip": false,
      "normalized": false,
      "special": true
    },
    {
      "id": 70030,
      "content": "<unused30>",
      "single_word": false,
      "lstrip": false,
      "rstrip": false,
      "normalized": false,
      "special": true
    },
    {
      "id": 70031,
      "content": "<unused31>",
      "single_word": false,
      "lstrip": false,
      "rstrip": false,
      "normalized": false,
      "special": true
    },
    {
      "id": 70032,
      "content": "<unused32>",
      "single_word": false,
      "lstrip": false,
      "rstrip": false,
      "normalized": false,
      "special": true
    },
    {
      "id": 70033,
      "content": "<unused33>",
      "single_word": false,
      "lstrip": false,
      "rstrip": false,
      "normalized": false,
      "special": true
    },
    {
      "id": 70034,
      "content": "<unused34>",
      "single_word": false,
      "lstrip": false,
      "rstrip": false,
      "normalized": false,
      "special": true
    },
    {
      "id": 70035,
      "content": "<unused35>",
      "single_word": false,
      "lstrip": false,
      "rstrip": false,
      "normalized": false,
      "special": true
    },
    {
      "id": 70036,
      "content": "<unused36>",
      "single_word": false,
      "lstrip": false,
      "rstrip": false,
      "normalized": false,
      "special": true
    },
    {
      "id": 70037,
      "content": "<unused37>",
      "single_word": false,
      "lstrip": false,
      "rstrip": false,
      "normalized": false,
      "special": true
    },
    {
      "id": 70038,
      "content": "<unused38>",
      "single_word": false,
      "lstrip": false,
      "rstrip": false,
      "normalized": false,
      "special": true
    },
    {
      "id": 70039,
      "content": "<unused39>",
      "single_word": false,
      "lstrip": false,
      "rstrip": false,
      "normalized": false,
      "special": true
    },
    {
      "id": 70040,
      "content": "<unused40>",
      "single_word": false,
      "lstrip": false,
      "rstrip": false,
      "normalized": false,
      "special": true
    },
    {
      "id": 70041,
      "content": "<unused41>",
      "single_word": false,
      "lstrip": false,
      "rstrip": false,
      "normalized": false,
      "special": true
    },
    {
      "id": 70042,
      "content": "<unused42>",
      "single_word": false,
      "lstrip": false,
      "rstrip": false,
      "normalized": false,
      "special": true
    },
    {
      "id": 70043,
      "content": "<unused43>",
      "single_word": false,
      "lstrip": false,
      "rstrip": false,
      "normalized": false,
      "special": true
    },
    {
      "id": 70044,
      "content": "<unused44>",
      "single_word": false,
      "lstrip": false,
      "rstrip": false,
      "normalized": false,
      "special": true
    },
    {
      "id": 70045,
      "content": "<unused45>",
      "single_word": false,
      "lstrip": false,
      "rstrip": false,
      "normalized": false,
      "special": true
    },
    {
      "id": 70046,
      "content": "<unused46>",
      "single_word": false,
      "lstrip": false,
      "rstrip": false,
      "normalized": false,
      "special": true
    },
    {
      "id": 70047,
      "content": "<unused47>",
      "single_word": false,
      "lstrip": false,
      "rstrip": false,
      "normalized": false,
      "special": true
    },
    {
      "id": 70048,
      "content": "<unused48>",
      "single_word": false,
      "lstrip": false,
      "rstrip": false,
      "normalized": false,
      "special": true
    },
    {
      "id": 70049,
      "content": "<unused49>",
      "single_word": false,
      "lstrip": false,
      "rstrip": false,
      "normalized": false,
      "special": true
    },
    {
      "id": 70050,
      "content": "<unused50>",
      "single_word": false,
      "lstrip": false,
      "rstrip": false,
      "normalized": false,
      "special": true
    },
    {
      "id": 70051,
      "content": "<unused51>",
      "single_word": false,
      "lstrip": false,
      "rstrip": false,
      "normalized": false,
      "special": true
    },
    {
      "id": 70052,
      "content": "<unused52>",
      "single_word": false,
      "lstrip": false,
      "rstrip": false,
      "normalized": false,
      "special": true
    },
    {
      "id": 70053,
      "content": "<unused53>",
      "single_word": false,
      "lstrip": false,
      "rstrip": false,
      "normalized": false,
      "special": true
    },
    {
      "id": 70054,
      "content": "<unused54>",
      "single_word": false,
      "lstrip": false,
      "rstrip": false,
      "normalized": false,
      "special": true
    },
    {
      "id": 70055,
      "content": "<unused55>",
      "single_word": false,
      "lstrip": false,
      "rstrip": false,
      "normalized": false,
      "special": true
    },
    {
      "id": 70056,
      "content": "<unused56>",
      "single_word": false,
      "lstrip": false,
      "rstrip": false,
      "normalized": false,
      "special": true
    },
    {
      "id": 70057,
      "content": "<unused57>",
      "single_word": false,
      "lstrip": false,
      "rstrip": false,
      "normalized": false,
      "special": true
    },
    {
      "id": 70058,
      "content": "<unused58>",
      "single_word": false,
      "lstrip": false,
      "rstrip": false,
      "normalized": false,
      "special": true
    },
    {
      "id": 70059,
      "content": "<unused59>",
      "single_word": false,
      "lstrip": false,
      "rstrip": false,
      "normalized": false,
      "special": true
    },
    {
      "id": 70060,
      "content": "<unused60>",
      "single_word": false,
      "lstrip": false,
      "rstrip": false,
      "normalized": false,
      "special": true
    },
    {
      "id": 70061,
      "content": "<unused61>",
      "single_word": false,
      "lstrip": false,
      "rstrip": false,
      "normalized": false,
      "special": true
    },
    {
      "id": 70062,
      "content": "<unused62>",
      "single_word": false,
      "lstrip": false,
      "rstrip": false,
      "normalized": false,
      "special": true
    },
    {
      "id": 70063,
      "content": "<unused63>",
      "single_word": false,
      "lstrip": false,
      "rstrip": false,
      "normalized": false,
      "special": true
    },
    {
      "id": 70064,
      "content": "<unused64>",
      "single_word": false,
      "lstrip": false,
      "rstrip": false,
      "normalized": false,
      "special": true
    },
    {
      "id": 70065,
      "content": "<unused65>",
      "single_word": false,
      "lstrip": false,
      "rstrip": false,
      "normalized": false,
      "special": true
    },
    {
      "id": 70066,
      "content": "<unused66>",
      "single_word": false,
      "lstrip": false,
      "rstrip": false,
      "normalized": false,
      "special": true
    },
    {
      "id": 70067,
      "content": "<unused67>",
      "single_word": false,
      "lstrip": false,
      "rstrip": false,
      "normalized": false,
      "special": true
    },
    {
      "id": 70068,
      "content": "<unused68>",
      "single_word": false,
      "lstrip": false,
      "rstrip": false,
      "normalized": false,
      "special": true
    },
    {
      "id": 70069,
      "content": "<unused69>",
      "single_word": false,
      "lstrip": false,
      "rstrip": false,
      "normalized": false,
      "special": true
    },
    {
      "id": 70070,
      "content": "<unused70>",
      "single_word": false,
      "lstrip": false,
      "rstrip": false,
      "normalized": false,
      "special": true
    },
    {
      "id": 70071,
      "content": "<unused71>",
      "single_word": false,
      "lstrip": false,
      "rstrip": false,
      "normalized": false,
      "special": true
    },
    {
      "id": 70072,
      "content": "<unused72>",
      "single_word": false,
      "lstrip": false,
      "rstrip": false,
      "normalized": false,
      "special": true
    },
    {
      "id": 70073,
      "content": "<unused73>",
      "single_word": false,
      "lstrip": false,
      "rstrip": false,
      "normalized": false,
      "special": true
    },
    {
      "id": 70074,
      "content": "<unused74>",
      "single_word": false,
      "lstrip": false,
      "rstrip": false,
      "normalized": false,
      "special": true
    },
    {
      "id": 70075,
      "content": "<unused75>",
      "single_word": false,
      "lstrip": false,
      "rstrip": false,
      "normalized": false,
      "special": true
    },
    {
      "id": 70076,
      "content": "<unused76>",
      "single_word": false,
      "lstrip": false,
      "rstrip": false,
      "normalized": false,
      "special": true
    },
    {
      "id": 70077,
      "content": "<unused77>",
      "single_word": false,
      "lstrip": false,
      "rstrip": false,
      "normalized": false,
      "special": true
    },
    {
      "id": 70078,
      "content": "<unused78>",
      "single_word": false,
      "lstrip": false,
      "rstrip": false,
      "normalized": false,
      "special": true
    },
    {
      "id": 70079,
      "content": "<unused79>",
      "single_word": false,
      "lstrip": false,
      "rstrip": false,
      "normalized": false,
      "special": true
    },
    {
      "id": 70080,
      "content": "<unused80>",
      "single_word": false,
      "lstrip": false,
      "rstrip": false,
      "normalized": false,
      "special": true
    },
    {
      "id": 70081,
      "content": "<unused81>",
      "single_word": false,
      "lstrip": false,
      "rstrip": false,
      "normalized": false,
      "special": true
    },
    {
      "id": 70082,
      "content": "<unused82>",
      "single_word": false,
      "lstrip": false,
      "rstrip": false,
      "normalized": false,
      "special": true
    },
    {
      "id": 70083,
      "content": "<unused83>",
      "single_word": false,
      "lstrip": false,
      "rstrip": false,
      "normalized": false,
      "special": true
    },
    {
      "id": 70084,
      "content": "<unused84>",
      "single_word": false,
      "lstrip": false,
      "rstrip": false,
      "normalized": false,
      "special": true
    },
    {
      "id": 70085,
      "content": "<unused85>",
      "single_word": false,
      "lstrip": false,
      "rstrip": false,
      "normalized": false,
      "special": true
    },
    {
      "id": 70086,
      "content": "<unused86>",
      "single_word": false,
      "lstrip": false,
      "rstrip": false,
      "normalized": false,
      "special": true
    },
    {
      "id": 70087,
      "content": "<unused87>",
      "single_word": false,
      "lstrip": false,
      "rstrip": false,
      "normalized": false,
      "special": true
    },
    {
      "id": 70088,
      "content": "<unused88>",
      "single_word": false,
      "lstrip": false,
      "rstrip": false,
      "normalized": false,
      "special": true
    },
    {
      "id": 70089,
      "content": "<unused89>",
      "single_word": false,
      "lstrip": false,
      "rstrip": false,
      "normalized": false,
      "special": true
    },
    {
      "id": 70090,
      "content": "<unused90>",
      "single_word": false,
      "lstrip": false,
      "rstrip": false,
      "normalized": false,
      "special": true
    },
    {
      "id": 70091,
      "content": "<unused91>",
      "single_word": false,
      "lstrip": false,
      "rstrip": false,
      "normalized": false,
      "special": true
    },
    {
      "id": 70092,
      "content": "<unused92>",
      "single_word": false,
      "lstrip": false,
      "rstrip": false,
      "normalized": false,
      "special": true
    },
    {
      "id": 70093,
      "content": "<unused93>",
      "single_word": false,
      "lstrip": false,
      "rstrip": false,
      "normalized": false,
      "special": true
    },
    {
      "id": 70094,
      "content": "<unused94>",
      "single_word": false,
      "lstrip": false,
      "rstrip": false,
      "normalized": false,
      "special": true
    },
    {
      "id": 70095,
      "content": "<unused95>",
      "single_word": false,
      "lstrip": false,
      "rstrip": false,
      "normalized": false,
      "special": true
    },
    {
      "id": 70096,
      "content": "<unused96>",
      "single_word": false,
      "lstrip": false,
      "rstrip": false,
      "normalized": false,
      "special": true
    },
    {
      "id": 70097,
      "content": "<unused97>",
      "single_word": false,
      "lstrip": false,
      "rstrip": false,
      "normalized": false,
      "special": true
    },
    {
      "id": 70098,
      "content": "<unused98>",
      "single_word": false,
      "lstrip": false,
      "rstrip": false,
      "normalized": false,
      "special": true
    },
    {
      "id": 70099,
      "content": "<unused99>",
      "single_word": false,
      "lstrip": false,
      "rstrip": false,
      "normalized": false,
      "special": true
    },
    {
      "id": 70100,
      "content": "<unused100>",
      "single_word": false,
      "lstrip": false,
      "rstrip": false,
      "normalized": false,
      "special": true
    },
    {
      "id": 70101,
      "content": "<unused101>",
      "single_word": false,
      "lstrip": false,
      "rstrip": false,
      "normalized": false,
      "special": true
    },
    {
      "id": 70102,
      "content": "<unused102>",
      "single_word": false,
      "lstrip": false,
      "rstrip": false,
      "normalized": false,
      "special": true
    },
    {
      "id": 70103,
      "content": "<unused103>",
      "single_word": false,
      "lstrip": false,
      "rstrip": false,
      "normalized": false,
      "special": true
    },
    {
      "id": 70104,
      "content": "<unused104>",
      "single_word": false,
      "lstrip": false,
      "rstrip": false,
      "normalized": false,
      "special": true
    },
    {
      "id": 70105,
      "content": "<unused105>",
      "single_word": false,
      "lstrip": false,
      "rstrip": false,
      "normalized": false,
      "special": true
    },
    {
      "id": 70106,
      "content": "<unused106>",
      "single_word": false,
      "lstrip": false,
      "rstrip": false,
      "normalized": false,
      "special": true
    },
    {
      "id": 70107,
      "content": "<unused107>",
      "single_word": false,
      "lstrip": false,
      "rstrip": false,
      "normalized": false,
      "special": true
    },
    {
      "id": 70108,
      "content": "<unused108>",
      "single_word": false,
      "lstrip": false,
      "rstrip": false,
      "normalized": false,
      "special": true
    },
    {
      "id": 70109,
      "content": "<unused109>",
      "single_word": false,
      "lstrip": false,
      "rstrip": false,
      "normalized": false,
      "special": true
    },
    {
      "id": 70110,
      "content": "<unused110>",
      "single_word": false,
      "lstrip": false,
      "rstrip": false,
      "normalized": false,
      "special": true
    },
    {
      "id": 70111,
      "content": "<unused111>",
      "single_word": false,
      "lstrip": false,
      "rstrip": false,
      "normalized": false,
      "special": true
    },
    {
      "id": 70112,
      "content": "<unused112>",
      "single_word": false,
      "lstrip": false,
      "rstrip": false,
      "normalized": false,
      "special": true
    },
    {
      "id": 70113,
      "content": "<unused113>",
      "single_word": false,
      "lstrip": false,
      "rstrip": false,
      "normalized": false,
      "special": true
    },
    {
      "id": 70114,
      "content": "<unused114>",
      "single_word": false,
      "lstrip": false,
      "rstrip": false,
      "normalized": false,
      "special": true
    },
    {
      "id": 70115,
      "content": "<unused115>",
      "single_word": false,
      "lstrip": false,
      "rstrip": false,
      "normalized": false,
      "special": true
    },
    {
      "id": 70116,
      "content": "<unused116>",
      "single_word": false,
      "lstrip": false,
      "rstrip": false,
      "normalized": false,
      "special": true
    },
    {
      "id": 70117,
      "content": "<unused117>",
      "single_word": false,
      "lstrip": false,
      "rstrip": false,
      "normalized": false,
      "special": true
    },
    {
      "id": 70118,
      "content": "<unused118>",
      "single_word": false,
      "lstrip": false,
      "rstrip": false,
      "normalized": false,
      "special": true
    },
    {
      "id": 70119,
      "content": "<unused119>",
      "single_word": false,
      "lstrip": false,
      "rstrip": false,
      "normalized": false,
      "special": true
    },
    {
      "id": 70120,
      "content": "<unused120>",
      "single_word": false,
      "lstrip": false,
      "rstrip": false,
      "normalized": false,
      "special": true
    },
    {
      "id": 70121,
      "content": "<unused121>",
      "single_word": false,
      "lstrip": false,
      "rstrip": false,
      "normalized": false,
      "special": true
    },
    {
      "id": 70122,
      "content": "<unused122>",
      "single_word": false,
      "lstrip": false,
      "rstrip": false,
      "normalized": false,
      "special": true
    },
    {
      "id": 70123,
      "content": "<unused123>",
      "single_word": false,
      "lstrip": false,
      "rstrip": false,
      "normalized": false,
      "special": true
    },
    {
      "id": 70124,
      "content": "<unused124>",
      "single_word": false,
      "lstrip": false,
      "rstrip": false,
      "normalized": false,
      "special": true
    },
    {
      "id": 70125,
      "content": "<unused125>",
      "single_word": false,
      "lstrip": false,
      "rstrip": false,
      "normalized": false,
      "special": true
    },
    {
      "id": 70126,
      "content": "<unused126>",
      "single_word": false,
      "lstrip": false,
      "rstrip": false,
      "normalized": false,
      "special": true
    },
    {
      "id": 70127,
      "content": "<unused127>",
      "single_word": false,
      "lstrip": false,
      "rstrip": false,
      "normalized": false,
      "special": true
    },
    {
      "id": 70128,
      "content": "<unused128>",
      "single_word": false,
      "lstrip": false,
      "rstrip": false,
      "normalized": false,
      "special": true
    },
    {
      "id": 70129,
      "content": "<unused129>",
      "single_word": false,
      "lstrip": false,
      "rstrip": false,
      "normalized": false,
      "special": true
    },
    {
      "id": 70130,
      "content": "<unused130>",
      "single_word": false,
      "lstrip": false,
      "rstrip": false,
      "normalized": false,
      "special": true
    },
    {
      "id": 70131,
      "content": "<unused131>",
      "single_word": false,
      "lstrip": false,
      "rstrip": false,
      "normalized": false,
      "special": true
    },
    {
      "id": 70132,
      "content": "<unused132>",
      "single_word": false,
      "lstrip": false,
      "rstrip": false,
      "normalized": false,
      "special": true
    },
    {
      "id": 70133,
      "content": "<unused133>",
      "single_word": false,
      "lstrip": false,
      "rstrip": false,
      "normalized": false,
      "special": true
    },
    {
      "id": 70134,
      "content": "<unused134>",
      "single_word": false,
      "lstrip": false,
      "rstrip": false,
      "normalized": false,
      "special": true
    },
    {
      "id": 70135,
      "content": "<unused135>",
      "single_word": false,
      "lstrip": false,
      "rstrip": false,
      "normalized": false,
      "special": true
    },
    {
      "id": 70136,
      "content": "<unused136>",
      "single_word": false,
      "lstrip": false,
      "rstrip": false,
      "normalized": false,
      "special": true
    },
    {
      "id": 70137,
      "content": "<unused137>",
      "single_word": false,
      "lstrip": false,
      "rstrip": false,
      "normalized": false,
      "special": true
    },
    {
      "id": 70138,
      "content": "<unused138>",
      "single_word": false,
      "lstrip": false,
      "rstrip": false,
      "normalized": false,
      "special": true
    },
    {
      "id": 70139,
      "content": "<unused139>",
      "single_word": false,
      "lstrip": false,
      "rstrip": false,
      "normalized": false,
      "special": true
    },
    {
      "id": 70140,
      "content": "<unused140>",
      "single_word": false,
      "lstrip": false,
      "rstrip": false,
      "normalized": false,
      "special": true
    },
    {
      "id": 70141,
      "content": "<unused141>",
      "single_word": false,
      "lstrip": false,
      "rstrip": false,
      "normalized": false,
      "special": true
    },
    {
      "id": 70142,
      "content": "<unused142>",
      "single_word": false,
      "lstrip": false,
      "rstrip": false,
      "normalized": false,
      "special": true
    },
    {
      "id": 70143,
      "content": "<unused143>",
      "single_word": false,
      "lstrip": false,
      "rstrip": false,
      "normalized": false,
      "special": true
    },
    {
      "id": 70144,
      "content": "<unused144>",
      "single_word": false,
      "lstrip": false,
      "rstrip": false,
      "normalized": false,
      "special": true
    },
    {
      "id": 70145,
      "content": "<unused145>",
      "single_word": false,
      "lstrip": false,
      "rstrip": false,
      "normalized": false,
      "special": true
    },
    {
      "id": 70146,
      "content": "<unused146>",
      "single_word": false,
      "lstrip": false,
      "rstrip": false,
      "normalized": false,
      "special": true
    },
    {
      "id": 70147,
      "content": "<unused147>",
      "single_word": false,
      "lstrip": false,
      "rstrip": false,
      "normalized": false,
      "special": true
    },
    {
      "id": 70148,
      "content": "<unused148>",
      "single_word": false,
      "lstrip": false,
      "rstrip": false,
      "normalized": false,
      "special": true
    },
    {
      "id": 70149,
      "content": "<unused149>",
      "single_word": false,
      "lstrip": false,
      "rstrip": false,
      "normalized": false,
      "special": true
    },
    {
      "id": 70150,
      "content": "<unused150>",
      "single_word": false,
      "lstrip": false,
      "rstrip": false,
      "normalized": false,
      "special": true
    },
    {
      "id": 70151,
      "content": "<unused151>",
      "single_word": false,
      "lstrip": false,
      "rstrip": false,
      "normalized": false,
      "special": true
    },
    {
      "id": 70152,
      "content": "<unused152>",
      "single_word": false,
      "lstrip": false,
      "rstrip": false,
      "normalized": false,
      "special": true
    },
    {
      "id": 70153,
      "content": "<unused153>",
      "single_word": false,
      "lstrip": false,
      "rstrip": false,
      "normalized": false,
      "special": true
    },
    {
      "id": 70154,
      "content": "<unused154>",
      "single_word": false,
      "lstrip": false,
      "rstrip": false,
      "normalized": false,
      "special": true
    },
    {
      "id": 70155,
      "content": "<unused155>",
      "single_word": false,
      "lstrip": false,
      "rstrip": false,
      "normalized": false,
      "special": true
    },
    {
      "id": 70156,
      "content": "<unused156>",
      "single_word": false,
      "lstrip": false,
      "rstrip": false,
      "normalized": false,
      "special": true
    },
    {
      "id": 70157,
      "content": "<unused157>",
      "single_word": false,
      "lstrip": false,
      "rstrip": false,
      "normalized": false,
      "special": true
    },
    {
      "id": 70158,
      "content": "<unused158>",
      "single_word": false,
      "lstrip": false,
      "rstrip": false,
      "normalized": false,
      "special": true
    },
    {
      "id": 70159,
      "content": "<unused159>",
      "single_word": false,
      "lstrip": false,
      "rstrip": false,
      "normalized": false,
      "special": true
    },
    {
      "id": 70160,
      "content": "<unused160>",
      "single_word": false,
      "lstrip": false,
      "rstrip": false,
      "normalized": false,
      "special": true
    },
    {
      "id": 70161,
      "content": "<unused161>",
      "single_word": false,
      "lstrip": false,
      "rstrip": false,
      "normalized": false,
      "special": true
    },
    {
      "id": 70162,
      "content": "<unused162>",
      "single_word": false,
      "lstrip": false,
      "rstrip": false,
      "normalized": false,
      "special": true
    },
    {
      "id": 70163,
      "content": "<unused163>",
      "single_word": false,
      "lstrip": false,
      "rstrip": false,
      "normalized": false,
      "special": true
    },
    {
      "id": 70164,
      "content": "<unused164>",
      "single_word": false,
      "lstrip": false,
      "rstrip": false,
      "normalized": false,
      "special": true
    },
    {
      "id": 70165,
      "content": "<unused165>",
      "single_word": false,
      "lstrip": false,
      "rstrip": false,
      "normalized": false,
      "special": true
    },
    {
      "id": 70166,
      "content": "<unused166>",
      "single_word": false,
      "lstrip": false,
      "rstrip": false,
      "normalized": false,
      "special": true
    },
    {
      "id": 70167,
      "content": "<unused167>",
      "single_word": false,
      "lstrip": false,
      "rstrip": false,
      "normalized": false,
      "special": true
    },
    {
      "id": 70168,
      "content": "<unused168>",
      "single_word": false,
      "lstrip": false,
      "rstrip": false,
      "normalized": false,
      "special": true
    },
    {
      "id": 70169,
      "content": "<unused169>",
      "single_word": false,
      "lstrip": false,
      "rstrip": false,
      "normalized": false,
      "special": true
    },
    {
      "id": 70170,
      "content": "<unused170>",
      "single_word": false,
      "lstrip": false,
      "rstrip": false,
      "normalized": false,
      "special": true
    },
    {
      "id": 70171,
      "content": "<unused171>",
      "single_word": false,
      "lstrip": false,
      "rstrip": false,
      "normalized": false,
      "special": true
    },
    {
      "id": 70172,
      "content": "<unused172>",
      "single_word": false,
      "lstrip": false,
      "rstrip": false,
      "normalized": false,
      "special": true
    },
    {
      "id": 70173,
      "content": "<unused173>",
      "single_word": false,
      "lstrip": false,
      "rstrip": false,
      "normalized": false,
      "special": true
    },
    {
      "id": 70174,
      "content": "<unused174>",
      "single_word": false,
      "lstrip": false,
      "rstrip": false,
      "normalized": false,
      "special": true
    },
    {
      "id": 70175,
      "content": "<unused175>",
      "single_word": false,
      "lstrip": false,
      "rstrip": false,
      "normalized": false,
      "special": true
    },
    {
      "id": 70176,
      "content": "<unused176>",
      "single_word": false,
      "lstrip": false,
      "rstrip": false,
      "normalized": false,
      "special": true
    },
    {
      "id": 70177,
      "content": "<unused177>",
      "single_word": false,
      "lstrip": false,
      "rstrip": false,
      "normalized": false,
      "special": true
    },
    {
      "id": 70178,
      "content": "<unused178>",
      "single_word": false,
      "lstrip": false,
      "rstrip": false,
      "normalized": false,
      "special": true
    },
    {
      "id": 70179,
      "content": "<unused179>",
      "single_word": false,
      "lstrip": false,
      "rstrip": false,
      "normalized": false,
      "special": true
    },
    {
      "id": 70180,
      "content": "<unused180>",
      "single_word": false,
      "lstrip": false,
      "rstrip": false,
      "normalized": false,
      "special": true
    },
    {
      "id": 70181,
      "content": "<unused181>",
      "single_word": false,
      "lstrip": false,
      "rstrip": false,
      "normalized": false,
      "special": true
    },
    {
      "id": 70182,
      "content": "<unused182>",
      "single_word": false,
      "lstrip": false,
      "rstrip": false,
      "normalized": false,
      "special": true
    },
    {
      "id": 70183,
      "content": "<unused183>",
      "single_word": false,
      "lstrip": false,
      "rstrip": false,
      "normalized": false,
      "special": true
    },
    {
      "id": 70184,
      "content": "<unused184>",
      "single_word": false,
      "lstrip": false,
      "rstrip": false,
      "normalized": false,
      "special": true
    },
    {
      "id": 70185,
      "content": "<unused185>",
      "single_word": false,
      "lstrip": false,
      "rstrip": false,
      "normalized": false,
      "special": true
    },
    {
      "id": 70186,
      "content": "<unused186>",
      "single_word": false,
      "lstrip": false,
      "rstrip": false,
      "normalized": false,
      "special": true
    },
    {
      "id": 70187,
      "content": "<unused187>",
      "single_word": false,
      "lstrip": false,
      "rstrip": false,
      "normalized": false,
      "special": true
    },
    {
      "id": 70188,
      "content": "<unused188>",
      "single_word": false,
      "lstrip": false,
      "rstrip": false,
      "normalized": false,
      "special": true
    },
    {
      "id": 70189,
      "content": "<unused189>",
      "single_word": false,
      "lstrip": false,
      "rstrip": false,
      "normalized": false,
      "special": true
    },
    {
      "id": 70190,
      "content": "<unused190>",
      "single_word": false,
      "lstrip": false,
      "rstrip": false,
      "normalized": false,
      "special": true
    },
    {
      "id": 70191,
      "content": "<unused191>",
      "single_word": false,
      "lstrip": false,
      "rstrip": false,
      "normalized": false,
      "special": true
    },
    {
      "id": 70192,
      "content": "<unused192>",
      "single_word": false,
      "lstrip": false,
      "rstrip": false,
      "normalized": false,
      "special": true
    },
    {
      "id": 70193,
      "content": "<unused193>",
      "single_word": false,
      "lstrip": false,
      "rstrip": false,
      "normalized": false,
      "special": true
    },
    {
      "id": 70194,
      "content": "<unused194>",
      "single_word": false,
      "lstrip": false,
      "rstrip": false,
      "normalized": false,
      "special": true
    },
    {
      "id": 70195,
      "content": "<unused195>",
      "single_word": false,
      "lstrip": false,
      "rstrip": false,
      "normalized": false,
      "special": true
    },
    {
      "id": 70196,
      "content": "<unused196>",
      "single_word": false,
      "lstrip": false,
      "rstrip": false,
      "normalized": false,
      "special": true
    },
    {
      "id": 70197,
      "content": "<unused197>",
      "single_word": false,
      "lstrip": false,
      "rstrip": false,
      "normalized": false,
      "special": true
    },
    {
      "id": 70198,
      "content": "<unused198>",
      "single_word": false,
      "lstrip": false,
      "rstrip": false,
      "normalized": false,
      "special": true
    },
    {
      "id": 70199,
      "content": "<unused199>",
      "single_word": false,
      "lstrip": false,
      "rstrip": false,
      "normalized": false,
      "special": true
    },
    {
      "id": 70200,
      "content": "<unused200>",
      "single_word": false,
      "lstrip": false,
      "rstrip": false,
      "normalized": false,
      "special": true
    },
    {
      "id": 70201,
      "content": "<unused201>",
      "single_word": false,
      "lstrip": false,
      "rstrip": false,
      "normalized": false,
      "special": true
    },
    {
      "id": 70202,
      "content": "<unused202>",
      "single_word": false,
      "lstrip": false,
      "rstrip": false,
      "normalized": false,
      "special": true
    },
    {
      "id": 70203,
      "content": "<unused203>",
      "single_word": false,
      "lstrip": false,
      "rstrip": false,
      "normalized": false,
      "special": true
    },
    {
      "id": 70204,
      "content": "<unused204>",
      "single_word": false,
      "lstrip": false,
      "rstrip": false,
      "normalized": false,
      "special": true
    },
    {
      "id": 70205,
      "content": "<unused205>",
      "single_word": false,
      "lstrip": false,
      "rstrip": false,
      "normalized": false,
      "special": true
    },
    {
      "id": 70206,
      "content": "<unused206>",
      "single_word": false,
      "lstrip": false,
      "rstrip": false,
      "normalized": false,
      "special": true
    },
    {
      "id": 70207,
      "content": "<unused207>",
      "single_word": false,
      "lstrip": false,
      "rstrip": false,
      "normalized": false,
      "special": true
    },
    {
      "id": 70208,
      "content": "<unused208>",
      "single_word": false,
      "lstrip": false,
      "rstrip": false,
      "normalized": false,
      "special": true
    }
  ],
  "normalizer": null,
  "pre_tokenizer": {
    "type": "ByteLevel",
    "add_prefix_space": true,
    "trim_offsets": true,
    "use_regex": true
  },
  "post_processor": null,
  "decoder": {
    "type": "ByteLevel",
    "add_prefix_space": true,
    "trim_offsets": true,
    "use_regex": true
  },
  "model": {
    "type": "BPE",
    "dropout": null,
    "unk_token": "<unk>",
    "continuing_subword_prefix": null,
    "end_of_word_suffix": null,
    "fuse_unk": false,
    "byte_fallback": false,
    "vocab": {
      "<unk>": 0,
      "<s>": 1,
      "</s>": 2,
      "<pad>": 3,
      "<mask>": 4,
      "!": 5,
      "\"": 6,
      "#": 7,
      "$": 8,
      "%": 9,
      "&": 10,
      "'": 11,
      "(": 12,
      ")": 13,
      "*": 14,
      "+": 15,
      ",": 16,
      "-": 17,
      ".": 18,
      "/": 19,
      "0": 20,
      "1": 21,
      "2": 22,
      "3": 23,
      "4": 24,
      "5": 25,
      "6": 26,
      "7": 27,
      "8": 28,
      "9": 29,
      ":": 30,
      ";": 31,
      "<": 32,
      "=": 33,
      ">": 34,
      "?": 35,
      "@": 36,
      "A": 37,
      "B": 38,
      "C": 39,
      "D": 40,
      "E": 41,
      "F": 42,
      "G": 43,
      "H": 44,
      "I": 45,
      "J": 46,
      "K": 47,
      "L": 48,
      "M": 49,
      "N": 50,
      "O": 51,
      "P": 52,
      "Q": 53,
      "R": 54,
      "S": 55,
      "T": 56,
      "U": 57,
      "V": 58,
      "W": 59,
      "X": 60,
      "Y": 61,
      "Z": 62,
      "[": 63,
      "\\": 64,
      "]": 65,
      "^": 66,
      "_": 67,
      "`": 68,
      "a": 69,
      "b": 70,
      "c": 71,
      "d": 72,
      "e": 73,
      "f": 74,
      "g": 75,
      "h": 76,
      "i": 77,
      "j": 78,
      "k": 79,
      "l": 80,
      "m": 81,
      "n": 82,
      "o": 83,
      "p": 84,
      "q": 85,
      "r": 86,
      "s": 87,
      "t": 88,
      "u": 89,
      "v": 90,
      "w": 91,
      "x": 92,
      "y": 93,
      "z": 94,
      "{": 95,
      "|": 96,
      "}": 97,
      "~": 98,
      "¡": 99,
      "¢": 100,
      "£": 101,
      "¤": 102,
      "¥": 103,
      "¦": 104,
      "§": 105,
      "¨": 106,
      "©": 107,
      "ª": 108,
      "«": 109,
      "¬": 110,
      "®": 111,
      "¯": 112,
      "°": 113,
      "±": 114,
      "²": 115,
      "³": 116,
      "´": 117,
      "µ": 118,
      "¶": 119,
      "·": 120,
      "¸": 121,
      "¹": 122,
      "º": 123,
      "»": 124,
      "¼": 125,
      "½": 126,
      "¾": 127,
      "¿": 128,
      "Â": 129,
      "Ã": 130,
      "Ä": 131,
      "Å": 132,
      "Æ": 133,
      "Ç": 134,
      "È": 135,
      "É": 136,
      "Ê": 137,
      "Ë": 138,
      "Ì": 139,
      "Í": 140,
      "Î": 141,
      "Ï": 142,
      "Ð": 143,
      "Ñ": 144,
      "Ò": 145,
      "Ó": 146,
      "Ô": 147,
      "Õ": 148,
      "Ö": 149,
      "×": 150,
      "Ø": 151,
      "Ù": 152,
      "Ú": 153,
      "Û": 154,
      "Ü": 155,
      "Ý": 156,
      "Þ": 157,
      "ß": 158,
      "à": 159,
      "á": 160,
      "â": 161,
      "ã": 162,
      "ä": 163,
      "å": 164,
      "æ": 165,
      "ç": 166,
      "è": 167,
      "é": 168,
      "ê": 169,
      "ë": 170,
      "ì": 171,
      "í": 172,
      "î": 173,
      "ï": 174,
      "ð": 175,
      "ò": 176,
      "ó": 177,
      "ô": 178,
      "ā": 179,
      "Ă": 180,
      "ă": 181,
      "Ą": 182,
      "ą": 183,
      "Ć": 184,
      "ć": 185,
      "Ĉ": 186,
      "ĉ": 187,
      "Ċ": 188,
      "ċ": 189,
      "Č": 190,
      "č": 191,
      "Ď": 192,
      "ď": 193,
      "Đ": 194,
      "đ": 195,
      "Ē": 196,
      "ē": 197,
      "Ĕ": 198,
      "ĕ": 199,
      "Ė": 200,
      "ė": 201,
      "Ę": 202,
      "ę": 203,
      "Ě": 204,
      "ě": 205,
      "Ĝ": 206,
      "ĝ": 207,
      "Ğ": 208,
      "ğ": 209,
      "Ġ": 210,
      "ġ": 211,
      "Ģ": 212,
      "ģ": 213,
      "Ĥ": 214,
      "ĥ": 215,
      "Ħ": 216,
      "ħ": 217,
      "Ĩ": 218,
      "ĩ": 219,
      "Ī": 220,
      "ī": 221,
      "Ĭ": 222,
      "ĭ": 223,
      "Į": 224,
      "į": 225,
      "İ": 226,
      "ı": 227,
      "Ĳ": 228,
      "ĳ": 229,
      "Ĵ": 230,
      "ĵ": 231,
      "Ķ": 232,
      "ķ": 233,
      "ĸ": 234,
      "Ĺ": 235,
      "ĺ": 236,
      "Ļ": 237,
      "ļ": 238,
      "Ľ": 239,
      "ľ": 240,
      "Ŀ": 241,
      "ŀ": 242,
      "Ł": 243,
      "ł": 244,
      "Ń": 245,
      "¯į": 246,
      "à¯į": 247,
      "à²": 248,
      "Ġà²": 249,
      "à«": 250,
      "àª": 251,
      "µį": 252,
      "àµį": 253,
      "¤¾": 254,
      "à¤¾": 255,
      "Ġàª": 256,
      "³į": 257,
      "à³į": 258,
      "à²¿": 259,
      "¥į": 260,
      "à¥į": 261,
      "à©": 262,
      "¦¾": 263,
      "à¦¾": 264,
      "à¬": 265,
      "à±": 266,
      "¤°": 267,
      "à¤°": 268,
      "®ķ": 269,
      "à®ķ": 270,
      "àª¾": 271,
      "¯ģ": 272,
      "à¯ģ": 273,
      "®¤": 274,
      "à®¤": 275,
      "®¿": 276,
      "à®¿": 277,
      "à²°": 278,
      "§ĩ": 279,
      "à§ĩ": 280,
      "¥ĩ": 281,
      "à¥ĩ": 282,
      "³ģ": 283,
      "à³ģ": 284,
      "´¿": 285,
      "à´¿": 286,
      "¦°": 287,
      "à¦°": 288,
      "à²¾": 289,
      "¤ķ": 290,
      "à¤ķ": 291,
      "¤¤": 292,
      "à¤¤": 293,
      "à²¦": 294,
      "§į": 295,
      "à§į": 296,
      "´¨": 297,
      "à´¨": 298,
      "´ķ": 299,
      "à´ķ": 300,
      "¤¨": 301,
      "à¤¨": 302,
      "³Ĩ": 303,
      "à³Ĩ": 304,
      "¤¯": 305,
      "à¤¯": 306,
      "¦¿": 307,
      "à¦¿": 308,
      "¥Ģ": 309,
      "à¥Ģ": 310,
      "à«ĩ": 311,
      "¤¸": 312,
      "à¤¸": 313,
      "¤¿": 314,
      "à¤¿": 315,
      "®ª": 316,
      "à®ª": 317,
      "®®": 318,
      "à®®": 319,
      "®°": 320,
      "à®°": 321,
      "¦¨": 322,
      "à¦¨": 323,
      "´¤": 324,
      "à´¤": 325,
      "µģ": 326,
      "àµģ": 327,
      "à²²": 328,
      "à²¨": 329,
      "®¾": 330,
      "à®¾": 331,
      "à²¤": 332,
      "¤Ĥ": 333,
      "à¤Ĥ": 334,
      "®Ł": 335,
      "à®Ł": 336,
      "¤®": 337,
      "à¤®": 338,
      "àª°": 339,
      "¦ķ": 340,
      "à¦ķ": 341,
      "´¾": 342,
      "à´¾": 343,
      "¤²": 344,
      "à¤²": 345,
      "¤µ": 346,
      "à¤µ": 347,
      "à²Ĺ": 348,
      "¤¹": 349,
      "à¤¹": 350,
      "®µ": 351,
      "à®µ": 352,
      "âĢ": 353,
      "¦¤": 354,
      "à¦¤": 355,
      "´°": 356,
      "à´°": 357,
      "¨¾": 358,
      "à¨¾": 359,
      "¤ª": 360,
      "à¤ª": 361,
      "à²µ": 362,
      "®©": 363,
      "à®©": 364,
      "à«į": 365,
      "¦¬": 366,
      "à¦¬": 367,
      "®²": 368,
      "à®²": 369,
      "àª¨": 370,
      "à«Ģ": 371,
      "´¯": 372,
      "à´¯": 373,
      "Ġà¤ķ": 374,
      "à²Ĥ": 375,
      "à²ķ": 376,
      "à±į": 377,
      "à²¯": 378,
      "¥ĭ": 379,
      "à¥ĭ": 380,
      "´Ł": 381,
      "à´Ł": 382,
      "®¯": 383,
      "à®¯": 384,
      "´ª": 385,
      "à´ª": 386,
      "¯Ī": 387,
      "à¯Ī": 388,
      "¥¤": 389,
      "à¥¤": 390,
      "°¿": 391,
      "à°¿": 392,
      "¤¦": 393,
      "à¤¦": 394,
      "¦²": 395,
      "à¦²": 396,
      "¦®": 397,
      "à¦®": 398,
      "¦¸": 399,
      "à¦¸": 400,
      "à±ģ": 401,
      "®±": 402,
      "à®±": 403,
      "¨°": 404,
      "à¨°": 405,
      "àŃ": 406,
      "®³": 407,
      "à®³": 408,
      "¦¯": 409,
      "à¦¯": 410,
      "´²": 411,
      "à´²": 412,
      "¤ļ": 413,
      "à¤ļ": 414,
      "®ļ": 415,
      "à®ļ": 416,
      "àªĤ": 417,
      "´®": 418,
      "à´®": 419,
      "°¾": 420,
      "à°¾": 421,
      "à²¸": 422,
      "µĨ": 423,
      "àµĨ": 424,
      "¦ª": 425,
      "à¦ª": 426,
      "´µ": 427,
      "à´µ": 428,
      "à²³": 429,
      "Ġà¤¸": 430,
      "°¨": 431,
      "à°¨": 432,
      "à«ĭ": 433,
      "¥ģ": 434,
      "à¥ģ": 435,
      "à©Ģ": 436,
      "®¨": 437,
      "à®¨": 438,
      "´Ĥ": 439,
      "à´Ĥ": 440,
      "àª®": 441,
      "àµįâĢ": 442,
      "°°": 443,
      "à°°": 444,
      "¦¦": 445,
      "à¦¦": 446,
      "Ġà¬": 447,
      "¨¿": 448,
      "à¨¿": 449,
      "àª¤": 450,
      "¤ľ": 451,
      "à¤ľ": 452,
      "Ġà¤ª": 453,
      "à©ĩ": 454,
      "à²¡": 455,
      "àªµ": 456,
      "´¸": 457,
      "à´¸": 458,
      "¤Ĺ": 459,
      "à¤Ĺ": 460,
      "¨¸": 461,
      "à¨¸": 462,
      "Ġà¤®": 463,
      "§ģ": 464,
      "à§ģ": 465,
      "ĠØ": 466,
      "¨ķ": 467,
      "à¨ķ": 468,
      "àµįâĢį": 469,
      "´±": 470,
      "à´±": 471,
      "¨¨": 472,
      "à¨¨": 473,
      "Ġà²®": 474,
      "Ġà®ª": 475,
      "¨¦": 476,
      "à¨¦": 477,
      "Ġà¦ķ": 478,
      "Ġà²¸": 479,
      "àª¯": 480,
      "¤£": 481,
      "à¤£": 482,
      "¨¹": 483,
      "à¨¹": 484,
      "°Ĥ": 485,
      "à°Ĥ": 486,
      "àªķ": 487,
      "à²®": 488,
      "³ĩ": 489,
      "à³ĩ": 490,
      "àª¿": 491,
      "Ġà®ķ": 492,
      "°²": 493,
      "à°²": 494,
      "Ġà¤¹": 495,
      "´ļ": 496,
      "à´ļ": 497,
      "¤¬": 498,
      "à¤¬": 499,
      "°ķ": 500,
      "à°ķ": 501,
      "¤¶": 502,
      "à¤¶": 503,
      "à«ģ": 504,
      "Ġà²ķ": 505,
      "¨¤": 506,
      "à¨¤": 507,
      "¦¹": 508,
      "à¦¹": 509,
      "Ġà¦¬": 510,
      "´£": 511,
      "à´£": 512,
      "Ġt": 513,
      "Ġà¦¸": 514,
      "à²Ł": 515,
      "´³": 516,
      "à´³": 517,
      "Ġàªķ": 518,
      "¤Ĩ": 519,
      "à¤Ĩ": 520,
      "ÛĮ": 521,
      "¨²": 522,
      "à¨²": 523,
      "Ġà®µ": 524,
      "Ġà¦ª": 525,
      "Ġà®®": 526,
      "Ø§": 527,
      "Ġà¤Ĩ": 528,
      "Ġà¤µ": 529,
      "°¤": 530,
      "à°¤": 531,
      "Ġà²¨": 532,
      "¤ħ": 533,
      "à¤ħ": 534,
      "¯ĩ": 535,
      "à¯ĩ": 536,
      "Ġàªª": 537,
      "Ġà¤¤": 538,
      "§ĭ": 539,
      "à§ĭ": 540,
      "àª²": 541,
      "¨Ĥ": 542,
      "à¨Ĥ": 543,
      "®ħ": 544,
      "à®ħ": 545,
      "¦ľ": 546,
      "à¦ľ": 547,
      "Ġà®¤": 548,
      "¤Ł": 549,
      "à¤Ł": 550,
      "Ġà¤ħ": 551,
      "®£": 552,
      "à®£": 553,
      "Ġà®ħ": 554,
      "¦¼": 555,
      "à¦¼": 556,
      "Ġà´ª": 557,
      "¦Ł": 558,
      "à¦Ł": 559,
      "¦ĩ": 560,
      "à¦ĩ": 561,
      "¥Ĥ": 562,
      "à¥Ĥ": 563,
      "Ġà²ħ": 564,
      "Ġà¤¨": 565,
      "à®ķà®³": 566,
      "¦Ĺ": 567,
      "à¦Ĺ": 568,
      "³Ĥ": 569,
      "à³Ĥ": 570,
      "°®": 571,
      "à°®": 572,
      "Ġa": 573,
      "¦¶": 574,
      "à¦¶": 575,
      "Ġà®ļ": 576,
      "°µ": 577,
      "à°µ": 578,
      "à¤¾à¤Ĥ": 579,
      "°ª": 580,
      "à°ª": 581,
      "Ġàª¸": 582,
      "Ġà²ª": 583,
      "¨µ": 584,
      "à¨µ": 585,
      "he": 586,
      "à²ª": 587,
      "àª¾àªĤ": 588,
      "à¬¾": 589,
      "µĩ": 590,
      "àµĩ": 591,
      "Ġà²¹": 592,
      "µĭ": 593,
      "àµĭ": 594,
      "Ġà´ķ": 595,
      "¯Ĩ": 596,
      "à¯Ĩ": 597,
      "¤§": 598,
      "à¤§": 599,
      "¨®": 600,
      "à¨®": 601,
      "àª¸": 602,
      "§Ł": 603,
      "à§Ł": 604,
      "Ġà¨¦": 605,
      "in": 606,
      "®ĩ": 607,
      "à®ĩ": 608,
      "´Ļ": 609,
      "à´Ļ": 610,
      "§Ģ": 611,
      "à§Ģ": 612,
      "¤Ń": 613,
      "à¤Ń": 614,
      "Ġà¨ķ": 615,
      "°¸": 616,
      "à°¸": 617,
      "Ġà¨¸": 618,
      "¦Ľ": 619,
      "à¦Ľ": 620,
      "°¦": 621,
      "à°¦": 622,
      "à©°": 623,
      "àŃį": 624,
      "Ġà²¬": 625,
      "¤¡": 626,
      "à¤¡": 627,
      "ĠÙ": 628,
      "Ġà¤¦": 629,
      "Ġà®ĩ": 630,
      "Ġàª®": 631,
      "¦Ĩ": 632,
      "à¦Ĩ": 633,
      "à²Ĺà²³": 634,
      "à¬¿": 635,
      "¦ı": 636,
      "à¦ı": 637,
      "¨ª": 638,
      "à¨ª": 639,
      "³Ĭ": 640,
      "à³Ĭ": 641,
      "¤·": 642,
      "à¤·": 643,
      "àªŁ": 644,
      "Ġàª¤": 645,
      "Ġà¦Ĩ": 646,
      "³Ģ": 647,
      "à³Ģ": 648,
      "°¯": 649,
      "à°¯": 650,
      "à¬°": 651,
      "Ġà®¨": 652,
      "Ġà¤ľ": 653,
      "Ú©": 654,
      "à²£": 655,
      "à©ĭ": 656,
      "Ġà¦®": 657,
      "àµģà´Ĥ": 658,
      "§°": 659,
      "à§°": 660,
      "Ġà´¸": 661,
      "¦ļ": 662,
      "à¦ļ": 663,
      "Ġà¦ı": 664,
      "à²¬": 665,
      "Ø±": 666,
      "¥Ī": 667,
      "à¥Ī": 668,
      "Ġà¦¨": 669,
      "Ġà´µ": 670,
      "Ġà²µ": 671,
      "Ġà¤¬": 672,
      "¨ľ": 673,
      "à¨ľ": 674,
      "¯ĭ": 675,
      "à¯ĭ": 676,
      "³ĭ": 677,
      "à³ĭ": 678,
      "Ġà¤¯": 679,
      "Ġà¦¹": 680,
      "Ġà¨¹": 681,
      "Ġàªľ": 682,
      "à²·": 683,
      "à©±": 684,
      "Ġà¦¦": 685,
      "Ġà¦¤": 686,
      "°ļ": 687,
      "à°ļ": 688,
      "¨Ĩ": 689,
      "à¨Ĩ": 690,
      "àªª": 691,
      "à±ĩ": 692,
      "ĠàªĽ": 693,
      "Ġàªħ": 694,
      "à¥ĩà¤Ĥ": 695,
      "ĠàªĨ": 696,
      "ÙĪ": 697,
      "Ġà¤°": 698,
      "àª£": 699,
      "Ġà´¨": 700,
      "®İ": 701,
      "à®İ": 702,
      "Ġà´®": 703,
      "re": 704,
      "¤¥": 705,
      "à¤¥": 706,
      "¦Ń": 707,
      "à¦Ń": 708,
      "Ġà¨¨": 709,
      "à¯į.": 710,
      "´¦": 711,
      "à´¦": 712,
      "°Ĺ": 713,
      "à°Ĺ": 714,
      "°Ł": 715,
      "à°Ł": 716,
      "Ġàªµ": 717,
      "´ħ": 718,
      "à´ħ": 719,
      "Ġthe": 720,
      "à²¹": 721,
      "àª¹": 722,
      "à³Ĩ.": 723,
      "à±ĭ": 724,
      "Ġà®İ": 725,
      "Ûģ": 726,
      "Ġà´ħ": 727,
      "Ġo": 728,
      "Ġà": 729,
      "Ġà´": 730,
      "Ġà¨": 731,
      "Ġà¤": 732,
      "Ġà¦": 733,
      "Ġà°": 734,
      "Ġà®": 735,
      "Ġà¥": 736,
      "à©ģ": 737,
      "®Ļ": 738,
      "à®Ļ": 739,
      "¦·": 740,
      "à¦·": 741,
      "àª¦": 742,
      "Ġ(": 743,
      "Ġà²¤": 744,
      "¯Ĭ": 745,
      "à¯Ĭ": 746,
      "àª¥": 747,
      "ÛĴ": 748,
      "à²¦à²°": 749,
      "Ġ1": 750,
      "®´": 751,
      "à®´": 752,
      "à²ļ": 753,
      "àªľ": 754,
      "àªĹ": 755,
      "ĠÚ©": 756,
      "Ġà¨µ": 757,
      "°¡": 758,
      "à°¡": 759,
      "Ġàª¹": 760,
      "µĢ": 761,
      "àµĢ": 762,
      "Ġà²Ĩ": 763,
      "Ġà¤²": 764,
      "Ġà¦ħ": 765,
      "er": 766,
      "à²ľ": 767,
      "à²§": 768,
      "àª¡": 769,
      "ÙĨ": 770,
      "Ġà²ĩ": 771,
      "Ġà¤Ĺ": 772,
      "à²¶": 773,
      "Ġà²İ": 774,
      "ĠâĢ": 775,
      "Ġs": 776,
      "Ġà¨ª": 777,
      "Ġàª°": 778,
      "on": 779,
      "à©Ī": 780,
      "Ġà¦ķà¦°": 781,
      "à¨¾à¨Ĥ": 782,
      "àŃĩ": 783,
      "¦§": 784,
      "à¦§": 785,
      "Ġàª¨": 786,
      "à©Ĥ": 787,
      "à«ģàªĤ": 788,
      "at": 789,
      "Ġà¤¶": 790,
      "Ġà¤ķà¤°": 791,
      "´·": 792,
      "à´·": 793,
      "Ġà¥¤": 794,
      "à³ģ.": 795,
      "Ġw": 796,
      "àª¶": 797,
      "Ġà¤Ń": 798,
      "¯Ģ": 799,
      "à¯Ģ": 800,
      "à±Ģ": 801,
      "à²¿à²Ĥ": 802,
      "Ġà´¤": 803,
      "Ġà°ª": 804,
      "ĠØ§": 805,
      "¦£": 806,
      "à¦£": 807,
      "Ġà²°": 808,
      "Ġ2": 809,
      "en": 810,
      "Ġàª¬": 811,
      "à¯į,": 812,
      "Ġà¦ľ": 813,
      "à²µà²°": 814,
      "¤³": 815,
      "à¤³": 816,
      "¯Ĥ": 817,
      "à¯Ĥ": 818,
      "¦¥": 819,
      "à¦¥": 820,
      "à«ĩ.": 821,
      "¦ĸ": 822,
      "à¦ĸ": 823,
      "Ġàªķàª°": 824,
      "à®ªà®Ł": 825,
      "ÙĦ": 826,
      "Ġà¨®": 827,
      "àª§": 828,
      "Ġà¤ī": 829,
      "Ġà®ī": 830,
      "µĤ": 831,
      "àµĤ": 832,
      "is": 833,
      "Ġà¦¯": 834,
      "it": 835,
      "Ġc": 836,
      "Ġà¨ľ": 837,
      "nd": 838,
      "¦¡": 839,
      "à¦¡": 840,
      "¨£": 841,
      "à¨£": 842,
      "Ġà¤ļ": 843,
      "Ġà°µ": 844,
      "Ġà¨¤": 845,
      "Ġà°ķ": 846,
      "à±Ĩ": 847,
      "or": 848,
      "Ġà²¦": 849,
      "¤ĸ": 850,
      "à¤ĸ": 851,
      "..": 852,
      "µ½": 853,
      "à®µà®°": 854,
      "es": 855,
      "àµ½": 856,
      "¨Ĺ": 857,
      "à¨Ĺ": 858,
      "à«Ĥ": 859,
      "¦Ĥ": 860,
      "à¦Ĥ": 861,
      "à²¦à²²": 862,
      "µ¼": 863,
      "àµ¼": 864,
      "âĢĮ": 865,
      "Ġà´İ": 866,
      "¦ĵ": 867,
      "à¦ĵ": 868,
      "Ġà²Ĺ": 869,
      "Ġà¨ħ": 870,
      "Ġà²ľ": 871,
      "Ġà®İà®©": 872,
      "Ġà¦Ĺ": 873,
      "Ġb": 874,
      "à¥ĩ.": 875,
      "Ġp": 876,
      "Ġàªı": 877,
      "Ġà¦¶": 878,
      "Øª": 879,
      "´§": 880,
      "à´§": 881,
      "an": 882,
      "à¬ķ": 883,
      "Ġàª¦": 884,
      "Ġf": 885,
      "Ġà°¸": 886,
      "Ġà°®": 887,
      "´ŀ": 888,
      "à´ŀ": 889,
      "Ġà¤ĩ": 890,
      "àª³": 891,
      "à¬¨": 892,
      "Ġàªħàª¨": 893,
      "Ġof": 894,
      "¨ļ": 895,
      "à¨ļ": 896,
      "ed": 897,
      "Ġà®Ĩ": 898,
      "ing": 899,
      "al": 900,
      "à¥ĭà¤Ĥ": 901,
      "Ġà¤Ĩà¤¹": 902,
      "àµį.": 903,
      "Ġà¦°": 904,
      "´¶": 905,
      "à´¶": 906,
      "Ġà´ĩ": 907,
      "Ùħ": 908,
      "ou": 909,
      "àŃģ": 910,
      "´Ĺ": 911,
      "à´Ĺ": 912,
      "âĢĻ": 913,
      "¨Ł": 914,
      "à¨Ł": 915,
      "ar": 916,
      "§à": 917,
      "Ġà¦ļ": 918,
      "à²Ń": 919,
      "Ġà´ļ": 920,
      "à¬¤": 921,
      "à²¥": 922,
      "Ġàª²": 923,
      "ĠÙħ": 924,
      "à©į": 925,
      "à¯ģ.": 926,
      "Ġà¨¬": 927,
      "Ġà§": 928,
      "Ġà¨ĩ": 929,
      "Ġà¤ı": 930,
      "Ġàª¶": 931,
      "Ġin": 932,
      "àªļ": 933,
      "Ġà°ħ": 934,
      "Ġm": 935,
      "Ġto": 936,
      "Ġà²¶": 937,
      "àª¬": 938,
      "Ġà´Ĩ": 939,
      "¤ı": 940,
      "à¤ı": 941,
      "Ġà¦Ń": 942,
      "¤ł": 943,
      "à¤ł": 944,
      "à¦¼à¦¾": 945,
      "Ġà°¨": 946,
      "Úº": 947,
      "à§ĩà¥¤": 948,
      "¨¬": 949,
      "à¨¬": 950,
      "Ġà¤ªà¤°": 951,
      "Ġ-": 952,
      "à´ķà´³": 953,
      "Ġà¨²": 954,
      "Ġand": 955,
      "Ġà¤ħà¤¸": 956,
      "ĠĠ": 957,
      "Ø³": 958,
      "³Ī": 959,
      "à³Ī": 960,
      "¨Ī": 961,
      "à¤µà¤°": 962,
      "à¨Ī": 963,
      "à¬¬": 964,
      "à°¿à°Ĥ": 965,
      "ĠàªĹ": 966,
      "¤Ī": 967,
      "à¤Ī": 968,
      "à´¨à´¤": 969,
      "Ġd": 970,
      "Ġà¨°": 971,
      "¥ĥ": 972,
      "à¥ĥ": 973,
      "àµģ.": 974,
      "à²µà²¨": 975,
      "¤ĥ": 976,
      "à¤ĥ": 977,
      "´¹": 978,
      "à´¹": 979,
      "Ġ'": 980,
      "àª·": 981,
      "ic": 982,
      "à±Ĥ": 983,
      "à¦¼à§ĩ": 984,
      "Ġà¦ī": 985,
      "àªĸ": 986,
      "Ġà¨Ĺ": 987,
      "µĬ": 988,
      "àµĬ": 989,
      "´´": 990,
      "à´´": 991,
      "Ġà°ļ": 992,
      "´ľ": 993,
      "à´ľ": 994,
      "Ø¯": 995,
      "à³Ĭà²Ĥ": 996,
      "¦ģ": 997,
      "à¦ģ": 998,
      "¨¼": 999,
      "à¨¼": 1000,
      "ion": 1001,
      "Ġh": 1002,
      "ĠâĢĺ": 1003,
      "as": 1004,
      "àªĪ": 1005,
      "Ġà²ļ": 1006,
      "ĠÛģ": 1007,
      "à©Ĥà©°": 1008,
      "Ġà²Ī": 1009,
      "Ġàª¹àª¤": 1010,
      "Ġà²®à²¤": 1011,
      "à²¯à²²": 1012,
      "Ġà°¤": 1013,
      "µ»": 1014,
      "àµ»": 1015,
      "om": 1016,
      "Ġth": 1017,
      "le": 1018,
      "à´Ļà´³": 1019,
      "§Ĥ": 1020,
      "à§Ĥ": 1021,
      "Ġà¦ĵ": 1022,
      "Ġà®ĩà®°": 1023,
      "Ġà¨ī": 1024,
      "Ġà¦²": 1025,
      "à¤ķà¤°": 1026,
      "00": 1027,
      "Ġà²ī": 1028,
      "§ĥ": 1029,
      "à§ĥ": 1030,
      "Ġà¦ıà¦ķ": 1031,
      "Ġà²Ń": 1032,
      "à¨¿à©°": 1033,
      "àµįâĢĮ": 1034,
      "Ġà´°": 1035,
      "à¥Ģà¤Ĥ": 1036,
      "Ġà¤ĸ": 1037,
      "¨ĸ": 1038,
      "à¨ĸ": 1039,
      "à¤°à¤¤": 1040,
      "Ġà²Ĵ": 1041,
      "Ġà¥¥": 1042,
      "´¡": 1043,
      "à´¡": 1044,
      "à±ģ.": 1045,
      "Ġà®Ĵ": 1046,
      "Ġàª¥": 1047,
      "à²ķà²°": 1048,
      "Ġà²¯": 1049,
      "àªı": 1050,
      "Ġà¤ĺ": 1051,
      "ĠàªŃ": 1052,
      "¨à": 1053,
      "Ġà¬ķ": 1054,
      "Ġ|": 1055,
      "à¬®": 1056,
      "à¨¿à©±": 1057,
      "àªŃ": 1058,
      "Ġà´¬": 1059,
      "°·": 1060,
      "à°·": 1061,
      "Ġà¤«": 1062,
      "Ø§Ø": 1063,
      "ĠàªĨàªµ": 1064,
      "µ¾": 1065,
      "àµ¾": 1066,
      "ÛĮÚº": 1067,
      "®¸": 1068,
      "à®¸": 1069,
      "Ġ.": 1070,
      "Ġà¨ķà¨°": 1071,
      "à²¤à²°": 1072,
      "ĠØ¨": 1073,
      "Ú¾": 1074,
      "¨¡": 1075,
      "à¨¡": 1076,
      "¦Ļ": 1077,
      "à¦Ļ": 1078,
      "Ġà¬¸": 1079,
      "à³ģ,": 1080,
      "à²¾à²Ĥ": 1081,
      "Ġà´İà´¨": 1082,
      "Ġà¤ıà¤ķ": 1083,
      "Ġ3": 1084,
      "ent": 1085,
      "Ġà¦ªà¦°": 1086,
      "´¬": 1087,
      "à´¬": 1088,
      "Ġà®ħà®¤": 1089,
      "Ġàªĸ": 1090,
      "à¤°à¤ķ": 1091,
      "Ġà¦¸à¦®": 1092,
      "ĠØ³": 1093,
      "Ġàªļ": 1094,
      "à²ĸ": 1095,
      "Ġà¦¥": 1096,
      "à©ĭà¨Ĥ": 1097,
      "à³įâĢĮ": 1098,
      "Ġà¬ª": 1099,
      "ĠT": 1100,
      "´Ń": 1101,
      "à´Ń": 1102,
      "Ġà¤Ķ": 1103,
      "Ġàªªàª°": 1104,
      "Ġà´ī": 1105,
      "Ġà´ľ": 1106,
      "´¥": 1107,
      "à´¥": 1108,
      "àŃŁ": 1109,
      "à´¯à´¤": 1110,
      "³ĥ": 1111,
      "à³ĥ": 1112,
      "°ľ": 1113,
      "¥Į": 1114,
      "à¥Į": 1115,
      "à°ľ": 1116,
      "Ġà¨Ĩ": 1117,
      "à¬²": 1118,
      "Ġ\"": 1119,
      "Ġà¨ļ": 1120,
      "ĠI": 1121,
      "il": 1122,
      "Ġà°°": 1123,
      "à®ªà®¤": 1124,
      "Ġàªī": 1125,
      "à³Ĩà²Ĥ": 1126,
      "à±Ī": 1127,
      "àªĵ": 1128,
      "¨§": 1129,
      "à¨§": 1130,
      "°¶": 1131,
      "à°¶": 1132,
      "à´µà´°": 1133,
      "Ġà¤Ķà¤°": 1134,
      "Ġà´Ĵ": 1135,
      "¤«": 1136,
      "à¤«": 1137,
      "Ġà¦Ľ": 1138,
      "à¤¿à¤Ĥ": 1139,
      "à¬¹": 1140,
      "Ġn": 1141,
      "àªĩ": 1142,
      "à²Ĺà²³à²¨": 1143,
      "à®Łà®¤": 1144,
      "à²¯à²¨": 1145,
      "à±Ĭ": 1146,
      "°§": 1147,
      "à¤¤à¤°": 1148,
      "à°§": 1149,
      "Ġà²ħà²µà²°": 1150,
      "§à¥": 1151,
      "Ġre": 1152,
      "Ġl": 1153,
      "à®µà®¤": 1154,
      "Ġà¦Ĩà¦®": 1155,
      "¤¼": 1156,
      "à¤¼": 1157,
      "Ġà¦¬à¦²": 1158,
      "³ķ": 1159,
      "à³ķ": 1160,
      "Ġà¤¸à¤®": 1161,
      "µĪ": 1162,
      "àµĪ": 1163,
      "Ġe": 1164,
      "°¬": 1165,
      "à°¬": 1166,
      "à°¿.": 1167,
      "ve": 1168,
      "à®©à®°": 1169,
      "Ġà¦ĸ": 1170,
      "à²°à²¦": 1171,
      "Ġà«": 1172,
      "st": 1173,
      "¦ł": 1174,
      "à¦ł": 1175,
      "à¥Īà¤Ĥ": 1176,
      "ĠS": 1177,
      "à¦¾à¦ģ": 1178,
      "ro": 1179,
      "à³ģà²Ĥ": 1180,
      "à´°à´¤": 1181,
      "à²¸à²²": 1182,
      "Ġàª«": 1183,
      "Ø¨": 1184,
      "ĠA": 1185,
      "ĠÙĨ": 1186,
      "Ġà¬¬": 1187,
      "ĠØª": 1188,
      "à®¤à®²": 1189,
      "Ġà°¦": 1190,
      "§Ī": 1191,
      "à§Ī": 1192,
      "°£": 1193,
      "Ġà¤Ĩà¤£": 1194,
      "à°£": 1195,
      "Ġà®°": 1196,
      "Ġà®µà®°": 1197,
      "Ú¯": 1198,
      "à²°à²¤": 1199,
      "ct": 1200,
      "Ġ20": 1201,
      "à©ľ": 1202,
      "Ġbe": 1203,
      "à´¿.": 1204,
      "à±ģà°Ĥ": 1205,
      "à²¯à²ķ": 1206,
      "Ġà´¶": 1207,
      "Ġà¦ħà¦¨": 1208,
      "à¬¸": 1209,
      "à²¿,": 1210,
      "Ġà²ĩà²¦": 1211,
      "à¤°à¤®": 1212,
      "à¥Ģ.": 1213,
      "à«ĩ,": 1214,
      "Ġà¦«": 1215,
      "Ġà¦ĩ": 1216,
      "à¥Īà¥¤": 1217,
      "Ġà¦ıà¦ĩ": 1218,
      "Ġà°Ĺ": 1219,
      "ÙĪØ±": 1220,
      "Ġà°Ĩ": 1221,
      "à¦°à¦¤": 1222,
      "à®±à®¤": 1223,
      "Ġ:": 1224,
      "¥¦": 1225,
      "¤¢": 1226,
      "à¤¢": 1227,
      "Ġà¤®à¤¹": 1228,
      "à®Łà®®": 1229,
      "à³Ĩ,": 1230,
      "à¤¾.": 1231,
      "à²¤à²¦": 1232,
      "Ġà¤Ŀ": 1233,
      "Ġà®ĩà®¨": 1234,
      "Ġà¤¥": 1235,
      "Ġà¤ĩà¤¸": 1236,
      "§à§": 1237,
      "¨¶": 1238,
      "à¨¶": 1239,
      "Ġà¤Ł": 1240,
      "Ġg": 1241,
      "ly": 1242,
      "¥ī": 1243,
      "à¥ī": 1244,
      "Ġà®ĩà®¤": 1245,
      "Ġàªıàªķ": 1246,
      "à®ķà®®": 1247,
      "ĠÚ©ÛĮ": 1248,
      "Ġis": 1249,
      "à¯ģ,": 1250,
      "à®ķà®ª": 1251,
      "à¬ĩ": 1252,
      "àª«": 1253,
      "àª°àª®": 1254,
      "à®°à®®": 1255,
      "Ġàªªàª£": 1256,
      "àŃĭ": 1257,
      "Ġà´²": 1258,
      "Ġ5": 1259,
      "Ø§ÙĨ": 1260,
      "ĠÙ¾": 1261,
      "Ġ4": 1262,
      "Ġà²²": 1263,
      "àª°àª¨": 1264,
      "à²°à²µ": 1265,
      "à´ķà´°": 1266,
      "Ġà®ķà®Ł": 1267,
      "Ġà¤§": 1268,
      "ĠÚ©ÛĴ": 1269,
      "ĠC": 1270,
      "°¹": 1271,
      "à°¹": 1272,
      "à¤¯à¤ķ": 1273,
      "à¦¾à¥¤": 1274,
      "Ġà¤ħà¤¨": 1275,
      "àª®àª¨": 1276,
      "à¬ª": 1277,
      "Ġà¨ħà¨¤": 1278,
      "ĠâĢľ": 1279,
      "à©Į": 1280,
      "à¤°à¤£": 1281,
      "Ġà°¬": 1282,
      "à«Ģ.": 1283,
      "ut": 1284,
      "ÛĶ": 1285,
      "à®¤à®¤": 1286,
      "ot": 1287,
      "¦«": 1288,
      "à¦«": 1289,
      "id": 1290,
      "à¬£": 1291,
      "à´Łà´¤": 1292,
      "Ġàª°àª¹": 1293,
      "à¤ªà¤¨": 1294,
      "Ġà®Ĵà®°": 1295,
      "àŃĢ": 1296,
      "Ġàªķàª°àªµ": 1297,
      "à²¯à²µ": 1298,
      "à²°à²ķ": 1299,
      "à§ĩ,": 1300,
      "à²¿.": 1301,
      "Ġà²¸à²®": 1302,
      "à¬¥": 1303,
      "Ġà²¨à²¡": 1304,
      "ĠØ¬": 1305,
      "se": 1306,
      "ĠàªŁ": 1307,
      "ĠØ¯": 1308,
      "ur": 1309,
      "am": 1310,
      "à¦°à¦ķ": 1311,
      "à²°à²£": 1312,
      "ĠÙĪ": 1313,
      "Ġà²ħà²¨": 1314,
      "Ġà¦¹à§Ł": 1315,
      "ad": 1316,
      "Ġà¨Ń": 1317,
      "ĠĠĠĠ": 1318,
      "...": 1319,
      "à´°à´®": 1320,
      "¤ĺ": 1321,
      "à¤ĺ": 1322,
      "à®ķà®°": 1323,
      "Ġà¤¡": 1324,
      "¨ĩ": 1325,
      "à¨ĩ": 1326,
      "à¤¾,": 1327,
      "Ġà¦§": 1328,
      "Ġà²ªà²°": 1329,
      "Ġfor": 1330,
      "ce": 1331,
      "im": 1332,
      "Ġon": 1333,
      "à¥¦": 1334,
      "à´¯à´®": 1335,
      "ol": 1336,
      "à´ķà´¯": 1337,
      "¨¥": 1338,
      "à¨¥": 1339,
      "Ġà¨ĩà¨¸": 1340,
      "et": 1341,
      "Ġthat": 1342,
      "Ġà¥§à¥": 1343,
      "Ġà¬®": 1344,
      "Ġà®ħà®µà®°": 1345,
      "à¬¦": 1346,
      "ay": 1347,
      "à¤°à¤µ": 1348,
      "¨ĺ": 1349,
      "à¨ĺ": 1350,
      "¦ŀ": 1351,
      "à¦ŀ": 1352,
      "Ġà¤°à¤¹": 1353,
      "Ġà®ħà®°": 1354,
      "Ġà¤¤à¤°": 1355,
      "Ġà®ı": 1356,
      "Ġy": 1357,
      "³Į": 1358,
      "à³Į": 1359,
      "ation": 1360,
      "âĢĿ": 1361,
      "Ġà°²": 1362,
      "à¤¯à¤¤": 1363,
      "à®ķà®¤": 1364,
      "Ø§Ø±": 1365,
      "Ġà¦Ł": 1366,
      "Ġà´¦": 1367,
      "ĠM": 1368,
      "Ġà¦ľà¦¨": 1369,
      "Ġà¦ĺ": 1370,
      "Ø¹": 1371,
      "Ġà¤Ĩà¤ª": 1372,
      "Ġà°ĩ": 1373,
      "Ġà°ī": 1374,
      "Ġà´Ĵà´°": 1375,
      "®ľ": 1376,
      "à®ľ": 1377,
      "à¤ªà¤°": 1378,
      "à®ķà®µ": 1379,
      "ow": 1380,
      "à®³à®¤": 1381,
      "à¬Ł": 1382,
      "à®µà®©": 1383,
      "°Ń": 1384,
      "Ġà°ľ": 1385,
      "à°Ń": 1386,
      "à¥ĩ,": 1387,
      "à¤µà¤¸": 1388,
      "à¦®à¦¨": 1389,
      "à®¯à®®": 1390,
      "à®¯à®¤": 1391,
      "à©Īà¥¤": 1392,
      "à¤°à¤¸": 1393,
      "ch": 1394,
      "à®¤à®®": 1395,
      "ver": 1396,
      "ÙĤ": 1397,
      "à²°à²®": 1398,
      "ig": 1399,
      "ĠÙħÛĮÚº": 1400,
      "Ġà®īà®³": 1401,
      "Ġà¦Ĩà¦°": 1402,
      "à¦ľà¦¨": 1403,
      "¤Ľ": 1404,
      "à¤Ľ": 1405,
      "àªĽ": 1406,
      "Ġàª§": 1407,
      "à®Łà®©": 1408,
      "à²¨à²²": 1409,
      "àª°àª£": 1410,
      "Ġà¤ķà¤°à¤£": 1411,
      "Ġà¨ĸ": 1412,
      "®·": 1413,
      "à®·": 1414,
      "Ġà¦¹à¦¯": 1415,
      "Ġ19": 1416,
      "ĠàªĨàªª": 1417,
      "Ġà®¨à®Ł": 1418,
      "à¥Ģ,": 1419,
      "à¦¬à¦°": 1420,
      "Ġà¤¸à¤°": 1421,
      "à¤µà¤¤": 1422,
      "Ġàª¸àª®": 1423,
      "§¦": 1424,
      "à±įâĢĮ": 1425,
      "Ġà´Ń": 1426,
      "µĥ": 1427,
      "àµĥ": 1428,
      "Ġà¤Ĩà¤²": 1429,
      "à¬³": 1430,
      "Ġ6": 1431,
      "à¬Ļ": 1432,
      "´ĸ": 1433,
      "à´ĸ": 1434,
      "ir": 1435,
      "ĠB": 1436,
      "à®¯à®²": 1437,
      "§ľ": 1438,
      "à§ľ": 1439,
      "Ġu": 1440,
      "¨ħ": 1441,
      "à¨ħ": 1442,
      "Ġà¦ıà¦¬": 1443,
      "àª°àª¤": 1444,
      "´İ": 1445,
      "à´İ": 1446,
      "Ġà´±": 1447,
      "à¦°à¦£": 1448,
      "à¤¯à¤®": 1449,
      "Ùģ": 1450,
      "Ġà¤µà¤°": 1451,
      "¨ı": 1452,
      "à¨ı": 1453,
      "¦ī": 1454,
      "à¦ī": 1455,
      "Ġà®ħà®®": 1456,
      "Ġà´Ĺ": 1457,
      "ĠP": 1458,
      "à´Ĥ.": 1459,
      "´«": 1460,
      "à´«": 1461,
      "Ġà®®à®±": 1462,
      "§±": 1463,
      "à§±": 1464,
      "à¤®à¤§": 1465,
      "à®¯à®°": 1466,
      "à¤¾à¥¤": 1467,
      "à²Ĺà²³à²²": 1468,
      "à¤¹à¤£": 1469,
      "©à": 1470,
      "Ġà´¯": 1471,
      "à²¤à²¨": 1472,
      "à©ģà©±": 1473,
      "à²¡à²²": 1474,
      "à³Ĩà³Ĥ": 1475,
      "°³": 1476,
      "à°³": 1477,
      "Ġ201": 1478,
      "à¦¿à¥¤": 1479,
      "Ġà´ħà´¤": 1480,
      "Ġst": 1481,
      "à²İ": 1482,
      "à©Ľ": 1483,
      "Ġà§§à§": 1484,
      "Ġà´ĩà´¤": 1485,
      "¥Ĵ": 1486,
      "à¥Ĵ": 1487,
      "à©Ģà¨Ĥ": 1488,
      "ĠThe": 1489,
      "ith": 1490,
      "¤ŀ": 1491,
      "à¤ŀ": 1492,
      "Ġà´ªà´±": 1493,
      "à¥ģà¤Ĥ": 1494,
      "à²¯à²°": 1495,
      "Ġàª¡": 1496,
      "à¬·": 1497,
      "à¤ľà¤¨": 1498,
      "à®Łà®°": 1499,
      "el": 1500,
      "à¦ĸà¦¨": 1501,
      "à²¦à²¨": 1502,
      "à¬Ĺ": 1503,
      "ĠÛģÛĴ": 1504,
      "à²²à²µ": 1505,
      "Ġà´ªà´°": 1506,
      "¤ĩ": 1507,
      "à¤ĩ": 1508,
      "Ġà¬¨": 1509,
      "ĠØ±": 1510,
      "®ŀ": 1511,
      "à®ŀ": 1512,
      "Ġà²ĩà²²": 1513,
      "Ġà¬ı": 1514,
      "ÛĮØ§": 1515,
      "Ġà¨«": 1516,
      "Ġ)": 1517,
      "àª°àªķ": 1518,
      "Ġà°¯": 1519,
      "Ġà¤ħà¤§": 1520,
      "Ġàªĺ": 1521,
      "Ġàª¯": 1522,
      "à¦ªà¦°": 1523,
      "Ġit": 1524,
      "¨ī": 1525,
      "à¨ī": 1526,
      "Ġwh": 1527,
      "Ġà²Ĩà²°": 1528,
      "Ġà²®à²¨": 1529,
      "Ġà¨¹à¨¨": 1530,
      "Ġà¤ł": 1531,
      "Ġhe": 1532,
      "§İ": 1533,
      "à§İ": 1534,
      "Ġàª¤àª®": 1535,
      "¨Ń": 1536,
      "à¨Ń": 1537,
      "à¬Ľ": 1538,
      "Ġas": 1539,
      "Ġà¦¡": 1540,
      "ra": 1541,
      "Ø§ÙĦ": 1542,
      "ĠÙĦ": 1543,
      "Ġà®¯": 1544,
      "à¬ľ": 1545,
      "àª¾.": 1546,
      "Ġyou": 1547,
      "Ġà¬ħ": 1548,
      "Ġà¨²à¨Ī": 1549,
      "ĠØ§ÙĪØ±": 1550,
      "Ġà¦ıà¦ķà¦Ł": 1551,
      "Ġà°¶": 1552,
      "Ġ?": 1553,
      "Ġwith": 1554,
      "Ġàª¶àªķ": 1555,
      "à«ĭ.": 1556,
      "Ġà²¸à²°": 1557,
      "Ġà´ĩà´¨": 1558,
      "à´°à´£": 1559,
      "àªł": 1560,
      "°¥": 1561,
      "à°¥": 1562,
      "Ġà¬ķà¬°": 1563,
      "àª¿àªĤ": 1564,
      "Ġà¤¨à¤¹": 1565,
      "Ġà²¡": 1566,
      "Ġà¦®à¦¨": 1567,
      "Ġ7": 1568,
      "Ġà¤īà¤¨": 1569,
      "ĠH": 1570,
      "Ġà¬¦": 1571,
      "ÙĪÚº": 1572,
      "Ġ10": 1573,
      "à°¾à°Ĥ": 1574,
      "Ġ8": 1575,
      "Ġà²ħà²§": 1576,
      "ĠØ§Ø³": 1577,
      "àªŁàª²": 1578,
      "ul": 1579,
      "à®©à®¤": 1580,
      "Ġà®ªà®Ł": 1581,
      "à²¤à²µ": 1582,
      "Ġ!": 1583,
      "Ġan": 1584,
      "à²¸à²°": 1585,
      "Ġà²ľà²¨": 1586,
      "Ġà²Ĩà²Ĺ": 1587,
      "Ġà²µà²°": 1588,
      "Ø´": 1589,
      "Ġà°İ": 1590,
      "Ġà´ħà´¨": 1591,
      "ĠÚ©Ø±": 1592,
      "ÚĨ": 1593,
      "Ø¬": 1594,
      "à¦¤à¦°": 1595,
      "Ġal": 1596,
      "¨à¥": 1597,
      "¨«": 1598,
      "à¨«": 1599,
      "Ġà²Ł": 1600,
      "Ġà¬¹": 1601,
      "à¬¶": 1602,
      "Ġà´Ł": 1603,
      "ĠD": 1604,
      "à«ĥ": 1605,
      "¤Ĭ": 1606,
      "à¤Ĭ": 1607,
      "à¤ķà¤¤": 1608,
      "à¦ªà¦¨": 1609,
      "¤Ŀ": 1610,
      "à¤Ŀ": 1611,
      "Ġà´«": 1612,
      "à´¾à´Ĥ": 1613,
      "à´ķàµ¾": 1614,
      "à²¯à²¦": 1615,
      "à®¤à®©": 1616,
      "à±ģ,": 1617,
      "à¬§": 1618,
      "à¨¤à¨°": 1619,
      "Ġà®Ł": 1620,
      "Ġà®ħà®Ł": 1621,
      "à®²à®®": 1622,
      "à°²à°¨": 1623,
      "Ġà´¹": 1624,
      "âĢĶ": 1625,
      "Ġà¤īà¤ª": 1626,
      "à«¦": 1627,
      "Ġà´ħà´µ": 1628,
      "Ġà´¸à´®": 1629,
      "à¤¤à¤²": 1630,
      "Ġà²ı": 1631,
      "Ġà¤ķà¤°à¤¤": 1632,
      "§Į": 1633,
      "à§Į": 1634,
      "¤ģ": 1635,
      "à¤ģ": 1636,
      "à¦¾à¦Ĥ": 1637,
      "Ġà°ħà°¨": 1638,
      "à³Ĩà³ķ": 1639,
      "Ġà®ħà®©": 1640,
      "Ù¹": 1641,
      "Ġà®µà®´": 1642,
      "à¤¸à¤°": 1643,
      "ter": 1644,
      "à¤ķà¤¡": 1645,
      "ĠØ³ÛĴ": 1646,
      "à®¿,": 1647,
      "à¦¬à¦¨": 1648,
      "à²«": 1649,
      "à®¤à®°": 1650,
      "if": 1651,
      "à¤¦à¤°": 1652,
      "Ġà®ľ": 1653,
      "ĠW": 1654,
      "Ġà¬Ĩ": 1655,
      "Ġà®¤à®®": 1656,
      "à¤µà¤²": 1657,
      "Ġà°Ń": 1658,
      "à²ľà²¨": 1659,
      "àªĿ": 1660,
      "Ġà¤ķà¤¹": 1661,
      "ªà": 1662,
      "à¦ĵà§Ł": 1663,
      "à²²à²ķ": 1664,
      "à¨°à¨¤": 1665,
      "Ġà´¡": 1666,
      "ĠÚ¯": 1667,
      "Ġcon": 1668,
      "Ġàªīàªª": 1669,
      "ØŃ": 1670,
      "Ġà¤ĩà¤¤": 1671,
      "°ģ": 1672,
      "à°ģ": 1673,
      "Ġàªµàª§": 1674,
      "à®³à®°": 1675,
      "Ġà¤¯à¤¹": 1676,
      "Ø§Ùħ": 1677,
      "Ġà®ĩà®²": 1678,
      "ill": 1679,
      "Ġà²İà²²": 1680,
      "Ġà´µà´°": 1681,
      "Ġàªµàª°": 1682,
      "àª¨àª¨": 1683,
      "âĢĭ": 1684,
      "àª°àªµ": 1685,
      "Ø¦": 1686,
      "à®°à®¤": 1687,
      "à¦¾,": 1688,
      "Ġpro": 1689,
      "Ġà²Ĩà²¦à²°": 1690,
      "à²Ĺà²²": 1691,
      "¯à": 1692,
      "Ġà²«": 1693,
      "à®¿.": 1694,
      "Ġà¤ªà¤¹": 1695,
      "à¤·à¤£": 1696,
      "Ġà²ħà²µ": 1697,
      "à¤Ĺà¤°": 1698,
      "à´²à´¯": 1699,
      "ĠR": 1700,
      "Ġà®ķà®£": 1701,
      "¥¥": 1702,
      "à¥¥": 1703,
      "à¤¶à¤¨": 1704,
      "à²°à²¸": 1705,
      "à¤Ĺà¤¤": 1706,
      "Ø²": 1707,
      "à²¬à²°": 1708,
      "à´°à´¸": 1709,
      "Ø§Øª": 1710,
      "ĠÚ©ÙĪ": 1711,
      "ĠâĢĵ": 1712,
      "Ġà´Ī": 1713,
      "Ġà¤Ľ": 1714,
      "Ġ9": 1715,
      "Ġà²¬à²³": 1716,
      "her": 1717,
      "Ġà´ı": 1718,
      "¦ĥ": 1719,
      "à¦ĥ": 1720,
      "Ù¾": 1721,
      "à´µà´¨": 1722,
      "Ġà²ķà²°": 1723,
      "àµģà´Ĥ.": 1724,
      "Ġà¤ħà¤¸à¤²": 1725,
      "Ġàª®àª¹": 1726,
      "Ġà®ªà®²": 1727,
      "Ġà¦¹à¦ĩ": 1728,
      "Ġà®ħà®±": 1729,
      "Ġà¦ķà§°": 1730,
      "Ø§Ø¦": 1731,
      "Ġàª¨àª¥": 1732,
      "ment": 1733,
      "à²°à²²": 1734,
      "à´Ļàµ¾": 1735,
      "à¨¦à¨°": 1736,
      "à´°à´ķ": 1737,
      "à¤¬à¤°": 1738,
      "à²²à²¦": 1739,
      "Ġare": 1740,
      "à¤µà¤¨": 1741,
      "à¤®à¤¨": 1742,
      "ĠN": 1743,
      "à´°à´µ": 1744,
      "¤±": 1745,
      "à¤±": 1746,
      "à¤¹à¤°": 1747,
      "ers": 1748,
      "Ġwe": 1749,
      "Ġà§¨à": 1750,
      "à´Łà´¨": 1751,
      "ĠØ¹": 1752,
      "ri": 1753,
      "à«Ģ,": 1754,
      "Ġha": 1755,
      "Ġà¬°": 1756,
      "Ġàª¬àª¨": 1757,
      "à±ĥ": 1758,
      "Ġà³": 1759,
      "à®ķà®²": 1760,
      "à¦¼à¦¿": 1761,
      "à´¯à´ķ": 1762,
      "Ġor": 1763,
      "à®°à®£": 1764,
      "Ġàªķàª¹": 1765,
      "àª¸àª¨": 1766,
      "Ġà¤īà¤¸": 1767,
      "à°°à°®": 1768,
      "à²ł": 1769,
      "us": 1770,
      "Ġà²®à²¹": 1771,
      "à¯Ī.": 1772,
      "§·": 1773,
      "ĠÛģÙĪ": 1774,
      "à²®à²¨": 1775,
      "à©Īà¨Ĥ": 1776,
      "Ġà®ķà®²": 1777,
      "«à": 1778,
      "Ġà¨ĩà¨¹": 1779,
      "Ġà¨°à¨¹": 1780,
      "Ġà¤ķà¤°à¤¨": 1781,
      "àª¶àª¨": 1782,
      "¥ĳ": 1783,
      "à¥ĳ": 1784,
      "Ġà®ħà®°à®ļ": 1785,
      "th": 1786,
      "Ġ,": 1787,
      "à¤Ĺà¤²": 1788,
      "à³į,": 1789,
      "à¤ªà¤¤": 1790,
      "à§·": 1791,
      "àµĩà´¾": 1792,
      "Ġà¨¶": 1793,
      "à«Ī": 1794,
      "Ġà¦ķà¦¥": 1795,
      "Ġà®µà®¨": 1796,
      "Ġà²ĸ": 1797,
      "ate": 1798,
      "Ġà¦ħà¦Ń": 1799,
      "Ġwas": 1800,
      "Ġà´ĵ": 1801,
      "Ġà°Ī": 1802,
      "ess": 1803,
      "ld": 1804,
      "ge": 1805,
      "ĠG": 1806,
      "Ġà®®à®ķ": 1807,
      "ĠF": 1808,
      "à²¬à²¹": 1809,
      "Ġàªĵ": 1810,
      "à®²à®¤": 1811,
      "Ġà¨¸à¨®": 1812,
      "ÛĮÚ©": 1813,
      "à¨°à¨ķ": 1814,
      "od": 1815,
      "¥ħ": 1816,
      "à¥ħ": 1817,
      "Ġà²§": 1818,
      "ist": 1819,
      "à¬¡": 1820,
      "),": 1821,
      "ak": 1822,
      "ĠÚ©Ûģ": 1823,
      "à´¤à´®": 1824,
      "ĠÚ©Ø§": 1825,
      "Ġà¤®à¤¨": 1826,
      "Ġà²ħà²²": 1827,
      "Ġcom": 1828,
      "à¬¯": 1829,
      "à´ļà´¤": 1830,
      "Ġà®ķà®°": 1831,
      "Ġde": 1832,
      "Ġà¦Ĩà¦¸": 1833,
      "Ġà¨ķà¨°à¨¨": 1834,
      "ÛĮÙĨ": 1835,
      "Ġà®ĩà®©": 1836,
      "§à«": 1837,
      "à®ªà®°": 1838,
      "à²ĺ": 1839,
      "àª¾,": 1840,
      "à¦¬à¦¸": 1841,
      "op": 1842,
      "Ġà®ıà®±": 1843,
      "Ġat": 1844,
      "à¤¯à¤¨": 1845,
      "Ġà´¤à´¨": 1846,
      "Ġà®¤à®²": 1847,
      "Ġà®ħà®µ": 1848,
      "à´Łà´ķ": 1849,
      "Ġ[": 1850,
      "Ġà¤īà¤¤": 1851,
      "Ġà²¬à²°": 1852,
      "Ġà¤ħà¤¶": 1853,
      "à®®à®²": 1854,
      "ore": 1855,
      "à²Ĺà²°": 1856,
      "ĠL": 1857,
      "est": 1858,
      "à¦ķà¦²": 1859,
      "Ġà¨¡": 1860,
      "à¦°à¦®": 1861,
      "Ġà²ħà²¦": 1862,
      "Ġà¨Ĩà¨ª": 1863,
      "à¤Łà¤°": 1864,
      "Ġ||": 1865,
      "à²·à²£": 1866,
      "à®¯à®©": 1867,
      "Ġà¨¨à¨¹": 1868,
      "ĠØ¢": 1869,
      "Ġàª®àª³": 1870,
      "à±Ĩà°Ĥ": 1871,
      "´ĺ": 1872,
      "à´ĺ": 1873,
      "à´¯à´¨": 1874,
      "Ġà®ļà®®": 1875,
      "Ġà®²": 1876,
      "ĠØ§ÙĨ": 1877,
      "ĠE": 1878,
      "Ġà©": 1879,
      "Ġà²ħà²Ń": 1880,
      "Ġà¦¹à¦¬": 1881,
      "Ġà¦¸à¦Ļ": 1882,
      "Ġà²īà²¤": 1883,
      "à¬Ń": 1884,
      "à¬ļ": 1885,
      "ity": 1886,
      "pp": 1887,
      "à®¤à®ª": 1888,
      "Ġà¤Ĺà¤¯": 1889,
      "Ġv": 1890,
      "ĠàŃ": 1891,
      "àªľàª¨": 1892,
      "Ġà²¬à²Ĺ": 1893,
      "à¤ķà¤²": 1894,
      "Ġà®ªà®£": 1895,
      "à¨°à¨¨": 1896,
      "Ġà´Ĩà´°": 1897,
      "Ġà¤¬à¤¨": 1898,
      "Ġà®ªà®¤": 1899,
      "Ġà®¤à®©": 1900,
      "Ġàªħàª®": 1901,
      "Ġà¤ħà¤¸à¤¤": 1902,
      "Ġà¤Ĩà¤¤": 1903,
      "à°µà°°": 1904,
      "Ġà®®à®©": 1905,
      "à¥Īà¤Ĥà¥¤": 1906,
      "ab": 1907,
      "Ġà®ħà®¨": 1908,
      "¦ĺ": 1909,
      "à¦ĺ": 1910,
      "Ġà²¸à²¹": 1911,
      "à²ªà²°": 1912,
      "Ġex": 1913,
      "rom": 1914,
      "Ġà¤ħà¤ªà¤¨": 1915,
      "à¦°à¦¬": 1916,
      "ĠØŃ": 1917,
      "Ġà¨Ł": 1918,
      "Ġà¨¸à¨ķ": 1919,
      "Ġà¦®à¦§": 1920,
      "Ġà²ªà²¡": 1921,
      "à¨°à¨®": 1922,
      "Ġsu": 1923,
      "§¦à": 1924,
      "Ġà¬ľ": 1925,
      "Ġà¦īà¦ª": 1926,
      "ac": 1927,
      "àªµàªµ": 1928,
      "Ġà´ķà´£": 1929,
      "¤ĵ": 1930,
      "à¤ĵ": 1931,
      "à¦°à¦¸": 1932,
      "Ġ12": 1933,
      "à²Łà²°": 1934,
      "à¬ģ": 1935,
      "Ġà¦Ĩà¦Ĺ": 1936,
      "Ġà²¨à²®": 1937,
      "à²Ĺà²¦": 1938,
      "¬à": 1939,
      "Ġà¤¸à¤¹": 1940,
      "Ġà¤Ĩà¤°": 1941,
      "âĢį": 1942,
      "à©Ģà¥¤": 1943,
      "ØĮ": 1944,
      "à²³à²Ĺ": 1945,
      "à¤°à¤¦": 1946,
      "Ġà¬¤": 1947,
      "Ġse": 1948,
      "à°²à°ķ": 1949,
      "àµ¼à´¤": 1950,
      "à²µà²£": 1951,
      "ĠØ§ÙĦ": 1952,
      "ant": 1953,
      "ĠØ´": 1954,
      "à¤¤à¤®": 1955,
      "Ġby": 1956,
      "Ġà´ķà´´": 1957,
      "à«ĭàªĤ": 1958,
      "à²¯à²¤": 1959,
      "Ġà¤ħà¤°": 1960,
      "Ġà¦ķà¦°à¦¤": 1961,
      "Ġà®İà®¤": 1962,
      "Ġ15": 1963,
      "Ġà¦¹à¦²": 1964,
      "à¤¹à¤¤": 1965,
      "à¯Ī,": 1966,
      "ĠØ®": 1967,
      "Ġàªĩ": 1968,
      "àªµàª¨": 1969,
      "à²¿à³ķ": 1970,
      "à©ģà©°": 1971,
      "Ġà¨īà¨¸": 1972,
      "Ġà°¹": 1973,
      "à¦ªà¦¤": 1974,
      "à²ªà²¡": 1975,
      "®à": 1976,
      "res": 1977,
      "µĹ": 1978,
      "àµĹ": 1979,
      "à¦ļà¦¨": 1980,
      "à²Ĺà²¤": 1981,
      "àª¤àª¨": 1982,
      "à¦¬à¦²": 1983,
      "un": 1984,
      "à´Łà´Ļ": 1985,
      "à´ªà´¤": 1986,
      "àµį,": 1987,
      "Ġà®Ĩà®£": 1988,
      "Ġà®ħà®²": 1989,
      "à°¿,": 1990,
      "Ġà²ķà²²": 1991,
      "Ġà¦Ĩà¦Ľ": 1992,
      "à²¯à²®": 1993,
      "à®Łà®Ļ": 1994,
      "à«ģàªĤ.": 1995,
      "Ġà®īà®£": 1996,
      "Ġà²ħà²°": 1997,
      "à©ĩà¨Ĥ": 1998,
      "à¦ķà¦°": 1999,
      "à®ļà®®": 2000,
      "Ġà´ªà´±à´ŀ": 2001,
      "Ńà": 2002,
      "20": 2003,
      "Ġà®ħà®ª": 2004,
      "à¦¿,": 2005,
      "à¦¿à¦Ĥ": 2006,
      "ive": 2007,
      "Ġà¤¸à¤°à¤ķ": 2008,
      "ĠĠĠĠĠĠĠĠ": 2009,
      "Ġà²¤à²®": 2010,
      "Ġà¨īà¨¨": 2011,
      "©à¥": 2012,
      "Ġà®ªà®ķ": 2013,
      "à¥Ģà¥¤": 2014,
      "em": 2015,
      "à²°à²¡": 2016,
      "à®µà®Ł": 2017,
      "Ġà®Ĩà®ķ": 2018,
      "Ġà¤Ĩà¤ªà¤²": 2019,
      "à´·à´£": 2020,
      "à´¨à´Ļ": 2021,
      "Ġnot": 2022,
      "à¦¼à¥¤": 2023,
      "ĠO": 2024,
      "à«ĢàªĤ": 2025,
      "os": 2026,
      "ain": 2027,
      "ĠÙģ": 2028,
      "àªĵàª¨": 2029,
      "à®©à®®": 2030,
      "Ġà¦¸à¦¬": 2031,
      "Ġne": 2032,
      "Ø±ÛĮ": 2033,
      "qu": 2034,
      "à®Łà®²": 2035,
      "um": 2036,
      "Ġà¥¨à¥": 2037,
      "Ġàª¥àª¯": 2038,
      "and": 2039,
      "Ú¾ÛĮ": 2040,
      "Ġàªªàª¹": 2041,
      "Ġà¤ķà¤®": 2042,
      "à´¯à´ª": 2043,
      "Ġà¨īà¨¹": 2044,
      "Ġ200": 2045,
      "Ġà¤²à¤Ĺ": 2046,
      "ies": 2047,
      "ĠÙĨÛĴ": 2048,
      "à´µà´¸": 2049,
      "Ġà´¨à´²": 2050,
      "igh": 2051,
      "àªķàª°": 2052,
      "à¦¶à¦¨": 2053,
      "à¨ĩà¨Ĩ": 2054,
      "Ġ11": 2055,
      "à¦²à¦ķ": 2056,
      "àª¯àª¨": 2057,
      "Ġà¬Ń": 2058,
      "à¤¸à¤¨": 2059,
      "àªµàª¸": 2060,
      "à®¤à®µ": 2061,
      "àª¤àª°": 2062,
      "à¤µà¤£": 2063,
      "§§à§": 2064,
      "Ġà¦®à¦¹": 2065,
      "Ġà²¨à²¨": 2066,
      "ort": 2067,
      "à¤²à¤¨": 2068,
      "nt": 2069,
      "Âł": 2070,
      "¤½": 2071,
      "à¤½": 2072,
      "iv": 2073,
      "à²Łà²ķ": 2074,
      "à²¨à²¦": 2075,
      "Ġà¨Ĳ": 2076,
      "à´³à´¤": 2077,
      "Ġà²¤à²¨": 2078,
      "Ġà¤ħà¤Ń": 2079,
      "àªŁàª¨": 2080,
      "Ġhave": 2081,
      "Ġàª¨àª¹": 2082,
      "Ġr": 2083,
      "Ġàªªàª¡": 2084,
      "ĠÙ¾Ø±": 2085,
      "Ġà²ĩà²¨": 2086,
      "art": 2087,
      "Ġà®ªà®°": 2088,
      "Ġà¤Ĩà¤¯": 2089,
      "Ġà¨ĩà¨ķ": 2090,
      "à³ĩà²Ĥ": 2091,
      "Ġà¤µà¤¹": 2092,
      "Ġà²īà²¦": 2093,
      "à®µà®®": 2094,
      "à²Łà²¨": 2095,
      "Ġfrom": 2096,
      "Ġà¨ªà¨°": 2097,
      "Ġà´®à´¨": 2098,
      "à³į.": 2099,
      "Ġà¦§à¦°": 2100,
      "à´¤à´°": 2101,
      "à¤¡à¤²": 2102,
      "àªµàª°": 2103,
      "Ġà´ħà´±": 2104,
      "à¤°à¤¹": 2105,
      "à¦·à¦£": 2106,
      "ÙĨÛĴ": 2107,
      "Ġà¦ļà¦²": 2108,
      "Ġk": 2109,
      "Ġà®¸": 2110,
      "Ġà¨Ĩà¨ªà¨£": 2111,
      "Ġà¤¨à¤µ": 2112,
      "ect": 2113,
      "àªĨ": 2114,
      "Ġà®®à®¤": 2115,
      "à¤Łà¤¨": 2116,
      "à¬Ĥ": 2117,
      "ĠJ": 2118,
      "à¤²à¤¯": 2119,
      "à®¯à®ª": 2120,
      "à¨Łà¨°": 2121,
      "Øµ": 2122,
      "à²µà²²": 2123,
      "Ġà¨ĺ": 2124,
      "Ġ*": 2125,
      "à®±à®ª": 2126,
      "à¤²à¤ķ": 2127,
      "à¤°à¤¶": 2128,
      "à²°à²°": 2129,
      "à¤®à¤¤": 2130,
      "à¤°à¤ļ": 2131,
      "Ġà¬Ĺ": 2132,
      "Ġà¬¯": 2133,
      "¥§à¥": 2134,
      "Ġà²Ĩà²¦": 2135,
      "Ġà®ĵ": 2136,
      "oc": 2137,
      "Ġà¦Ĩà¦²": 2138,
      "Ġà®Ĩà®©": 2139,
      "àªŁàª°": 2140,
      "à²³à²²": 2141,
      "Ġ18": 2142,
      "Ġà´¨à´Łà´¤": 2143,
      "Ġà®İà®Ł": 2144,
      "à®³à®µ": 2145,
      "à°¯à°®": 2146,
      "àµ¼à´ķ": 2147,
      "à¤¸à¤²": 2148,
      "Ġà´®à´±": 2149,
      "Ġà¨§": 2150,
      "¨ł": 2151,
      "à¨ł": 2152,
      "à¤¦à¤¨": 2153,
      "à¤¯à¤°": 2154,
      "Ġthis": 2155,
      "Ġà¦ħà¦¸": 2156,
      "ud": 2157,
      "°ĸ": 2158,
      "à°ĸ": 2159,
      "ÛĮÛģ": 2160,
      "Ġà²ķà²¡": 2161,
      "à²ªà²¨": 2162,
      "Ġà²ķà²³": 2163,
      "à«ĩàª¾": 2164,
      "à´Ĺà´¤": 2165,
      "à¥ĩà¥¤": 2166,
      "àª¯àªķ": 2167,
      "Ġà¦Ĩà¦¬": 2168,
      "Ġà§°": 2169,
      "à²¥à²µ": 2170,
      "Ġà¤ªà¤¤": 2171,
      "Ġch": 2172,
      "Ġà²ĩà²°": 2173,
      "à¤¤à¤ķ": 2174,
      "à¤ļà¤¨": 2175,
      "à¨°à¨¸": 2176,
      "à¤²à¤¤": 2177,
      "à´Łà´ª": 2178,
      "à¦¤à¦¨": 2179,
      "à°°à°¤": 2180,
      "Ġà®īà®°": 2181,
      "à´¯à´¯": 2182,
      "à²µà²¤": 2183,
      "à®ļà®°": 2184,
      "Ġà¦Ĩà¦¨": 2185,
      "Ġà¤Ĩà¤ľ": 2186,
      "à¤¾-": 2187,
      "à®¯à®ķ": 2188,
      "Ġà²ķà²¨": 2189,
      "end": 2190,
      "àª²àª¨": 2191,
      "Ġwor": 2192,
      "Ġàª¸àª°": 2193,
      "ust": 2194,
      "à´¯à´Ļ": 2195,
      "à´¤à´²": 2196,
      "Ġà¤¤à¤¸": 2197,
      "à²ªà²¤": 2198,
      "à²°à²¨": 2199,
      "Ġsh": 2200,
      "Ġà¤Ĳ": 2201,
      "Ġà°ı": 2202,
      "à´£à´®": 2203,
      "à²°à²¹": 2204,
      "ĠÙĤ": 2205,
      "à´¨à´®": 2206,
      "àªªàª¨": 2207,
      "à²ŀ": 2208,
      "àª¯àª®": 2209,
      "Ġà°Ĵ": 2210,
      "Ġà¤ĵ": 2211,
      "à²²à²¸": 2212,
      "à«Į": 2213,
      "Ġà®Ĭ": 2214,
      "à¬ĸ": 2215,
      "Ġàª¦àª°": 2216,
      "Ġà¤ľà¤¨": 2217,
      "ÚĪ": 2218,
      "àªī": 2219,
      "à´°à´¨": 2220,
      "à¥ĭ.": 2221,
      "ĠÚĨ": 2222,
      "à´¤à´¤": 2223,
      "àªľàª°": 2224,
      "à¤°à¤ª": 2225,
      "à¨īà¨£": 2226,
      ").": 2227,
      "à¤Łà¤²": 2228,
      "Ø®": 2229,
      "à´µà´¤": 2230,
      "à¤®à¤ļ": 2231,
      "Ġà²ħà²¤": 2232,
      "Ġà¦ıà¦°": 2233,
      "à´·à´¨": 2234,
      "à²¯à²¦à²²": 2235,
      "à¦°à¦¦": 2236,
      "à²¸à²¬": 2237,
      "--": 2238,
      "Ġà¤¦à¤°": 2239,
      "à¤°à¤²": 2240,
      "ĠàªĹàª¯": 2241,
      "àªķàª¨": 2242,
      "Ġà²İà²¨": 2243,
      "Ùĩ": 2244,
      "ould": 2245,
      "000": 2246,
      "Ġle": 2247,
      "Ø§Ø¨": 2248,
      "à¦®à¦¤": 2249,
      "Ġà¦¬à¦¨": 2250,
      "à®µà®²": 2251,
      "à¦ĵà¦¯": 2252,
      "Ġà®®à®°": 2253,
      "Ġà¨¯": 2254,
      "Ġà¦īà¦¦": 2255,
      "à®®à®¤": 2256,
      "ÛĮØ±": 2257,
      "¨Ŀ": 2258,
      "à¨Ŀ": 2259,
      "à¤ķà¤°à¤£": 2260,
      "à²¨à²µ": 2261,
      "à§ĩà¦¾": 2262,
      "à²°à²¦à²²": 2263,
      "à¦Łà¦¨": 2264,
      "ome": 2265,
      "à®´à®ķ": 2266,
      "Ġà°¡": 2267,
      "à¨¼à¨¾": 2268,
      "à´°à´Ļ": 2269,
      "Ġà¦ķà¦®": 2270,
      "Ġà«§à«": 2271,
      "Ġà¦®à¦¤": 2272,
      "red": 2273,
      "à²ĥ": 2274,
      "Ġà®®à®£": 2275,
      "à¤¸à¤®": 2276,
      "Ġab": 2277,
      "à®®à®©": 2278,
      "Ġà¤ªà¤¦": 2279,
      "ªà¥": 2280,
      "ial": 2281,
      "Ġà°®à°°": 2282,
      "à¨¬à¨°": 2283,
      "à¤Łà¤ķ": 2284,
      "à¦ĩà¦¨": 2285,
      "àŃĤ": 2286,
      "à²Ńà²µ": 2287,
      "à¥§à¥": 2288,
      "Ġà²ĺ": 2289,
      "gh": 2290,
      "Ġà®ħà®£": 2291,
      "Ġàªķàª°àª¤": 2292,
      "ĠÛģÛĮÚº": 2293,
      "Ġà´°à´£": 2294,
      "Ġà¤ħà¤¤": 2295,
      "Ġà´ħà´Ł": 2296,
      "Ġà¨ªà¨¹": 2297,
      "Ġà¤īà¤¦": 2298,
      "à¨¾,": 2299,
      "à°ķà°°": 2300,
      "à´Łà´°": 2301,
      "Ġà¤¤à¤ķ": 2302,
      "all": 2303,
      "à´¯à´°": 2304,
      "à¦¦à¦¨": 2305,
      "àªªàª°": 2306,
      "à´²à´¤": 2307,
      "Ġà¤ªà¤£": 2308,
      "¤Ļ": 2309,
      "à¤Ļ": 2310,
      "¦Ŀ": 2311,
      "à¦Ŀ": 2312,
      "Ġà¦Ĩà¦ªà¦¨": 2313,
      "our": 2314,
      "à²¤à²®": 2315,
      "à¤®à¤²": 2316,
      "à¤¾à¤ģ": 2317,
      "à¨Ĩà¨°": 2318,
      "Ġà´İà´¤": 2319,
      "ich": 2320,
      "à©Ī,": 2321,
      "Ġà¤Ĩà¤µ": 2322,
      "Ġà¤ĩà¤¨": 2323,
      "àªµàª¤": 2324,
      "ĠK": 2325,
      "à¤Ĭà¤¨": 2326,
      "àª¦àª°": 2327,
      "à®Łà®ª": 2328,
      "Ġà°ªà°°": 2329,
      "Ġà®īà®±": 2330,
      "Ġà°¸à°®": 2331,
      "ĠU": 2332,
      "à®ķà®Ł": 2333,
      "ight": 2334,
      "à¦²à¦¨": 2335,
      "à²ķà²°à²£": 2336,
      "Ġà²Ĩà²¯": 2337,
      "Ġàª¤àª°": 2338,
      "àµįâĢį,": 2339,
      "ard": 2340,
      "ĠÙĨÛģ": 2341,
      "à®±à®©": 2342,
      "Ġà¬¶": 2343,
      "out": 2344,
      "à¦Ĺà¦¤": 2345,
      "Ġà¤ĳ": 2346,
      "Ġà°Ł": 2347,
      "¨¯": 2348,
      "Ġà¦ªà¦¡": 2349,
      "à¨°à¨¦": 2350,
      "à©Ģ,": 2351,
      "à¤¤à¤¨": 2352,
      "Ø§Ø¯": 2353,
      "à¦°à¦¹": 2354,
      "à¥Ī,": 2355,
      "à°¦à°°": 2356,
      "à¨¯": 2357,
      "µº": 2358,
      "Ġà¤¬à¤¹": 2359,
      "à°¯à°¨": 2360,
      "Ġà²¬à²¹": 2361,
      "àµº": 2362,
      "Ġ13": 2363,
      "Ġà¦Ĩà§°": 2364,
      "Ġà®ļà®°": 2365,
      "Ġà¤®à¤§": 2366,
      "à¦¯à¦ķ": 2367,
      "Ġà²İà²°à²¡": 2368,
      "à¤¯à¤¸": 2369,
      "Ġà²ħà²¥à²µ": 2370,
      "Ġ14": 2371,
      "Ġà²īà²ª": 2372,
      "àªĹàª°": 2373,
      "³¦": 2374,
      "à¤¯à¤²": 2375,
      "ÙĦÛĮ": 2376,
      "Ġà¦ħà¦¬": 2377,
      "Ġà¤ıà¤µ": 2378,
      "Ġcan": 2379,
      "à´®à´¯": 2380,
      "Ġàªıàªµ": 2381,
      "à®¤à®ķ": 2382,
      "Ġà¤¤à¤¤": 2383,
      "à¦¨à¦¤": 2384,
      "à¤°à¤¨": 2385,
      "à´²à´ª": 2386,
      "à²µà²¦": 2387,
      "ear": 2388,
      "ĠàªĪ": 2389,
      "Ġà¤ķà¤²": 2390,
      "ag": 2391,
      "à²¡à²¬": 2392,
      "Ġà¤ĺà¤°": 2393,
      "Ġà²¸à²¦": 2394,
      "Ġàª¥àªĪ": 2395,
      "Ġà¬ıà¬¹": 2396,
      "Ġàª¶àª°": 2397,
      "à°¦à°¨": 2398,
      "Ġwill": 2399,
      "àª¦àª¨": 2400,
      "Ġàª®àª¨": 2401,
      "Ġhas": 2402,
      "à°°à°ķ": 2403,
      "ie": 2404,
      "Ġà²¸à²²": 2405,
      "Ġà¦¸à¦¹": 2406,
      "à¨¸à¨¤": 2407,
      "Ø§Ûģ": 2408,
      "Ġà¤ħà¤ª": 2409,
      "Ġà´īà´ª": 2410,
      "Ġà¦¬à¦°": 2411,
      "à¨¾à¥¤": 2412,
      "Ġà®İà®´": 2413,
      "à´¨à´¯": 2414,
      "ost": 2415,
      "Ġà´īà´£": 2416,
      "ĠàªªàªĽ": 2417,
      "Ġà¦ıà¦¸": 2418,
      "à²¨à²¡": 2419,
      "à²¦à²ķ": 2420,
      "ĠâĢĻ": 2421,
      "Ġà¤¤à¤¥": 2422,
      "à®²à®ķ": 2423,
      "àµ½à´ķ": 2424,
      "à¦¥à¦®": 2425,
      "....": 2426,
      "àª°àª¸": 2427,
      "Ġà²Īà²Ĺ": 2428,
      "Úĳ": 2429,
      "à¤Ĺà¤£": 2430,
      "à³Ĩà³Ĥà³ķ": 2431,
      "Ġà¦ħà¦°": 2432,
      "¤ī": 2433,
      "à¤ī": 2434,
      "rou": 2435,
      "Ġà®¤à®°": 2436,
      "¨Ľ": 2437,
      "àª¤àª®": 2438,
      "à¨Ľ": 2439,
      "Ġà´ªà´±à´¯": 2440,
      "Ġ0": 2441,
      "Ġà¤Ĩà¤¦": 2442,
      "à®³à®®": 2443,
      "Ġà¦¤à¦¬": 2444,
      "Ġà´ŀ": 2445,
      "à´µà´¶": 2446,
      "Ø¦ÛĴ": 2447,
      "Ġà´ħà´¦": 2448,
      "Ġà«¨": 2449,
      "Ġà²ªà²¤": 2450,
      "à´¿à´Ĥ": 2451,
      "Ġà¤¸à¤¤": 2452,
      "àª®àª£": 2453,
      "Ġ25": 2454,
      "ure": 2455,
      "à²ķà²³": 2456,
      "ĠIn": 2457,
      "à¤¾à¤ĥ": 2458,
      "à®±à®®": 2459,
      "à®£à®®": 2460,
      "à¤¸à¤¤": 2461,
      "Ġà¨¬à¨£": 2462,
      "à²²à²°": 2463,
      "à¤¤à¤µ": 2464,
      "à¥Ĥà¤Ĥ": 2465,
      "Ø·": 2466,
      "Ġà¦ıà¦ĸà¦¨": 2467,
      "Ġsp": 2468,
      "àª¢": 2469,
      "à¤ªà¤¯": 2470,
      "à´°à´¯": 2471,
      "à´±à´¤": 2472,
      "Ġpl": 2473,
      "Ġà¦ªà§°": 2474,
      "à¤§à¤¨": 2475,
      "Ġall": 2476,
      "Ġà§¨à§": 2477,
      "à¤¦à¤²": 2478,
      "à¨°à¨ľ": 2479,
      "à²İà²¸": 2480,
      "à²®à²¦": 2481,
      "pt": 2482,
      "Ġà¤Ĺà¤°": 2483,
      "Ġà®¨à®®": 2484,
      "Ġàªľàª£": 2485,
      "ast": 2486,
      "à¦²à¦¤": 2487,
      "à´®à´¤": 2488,
      "à®ķà®©": 2489,
      "Ġà¦¸à¦¨": 2490,
      "Ġà¦ħà¦§": 2491,
      "Ġà¦¹à¦¤": 2492,
      "Ø³Øª": 2493,
      "Ġà²ªà²ķ": 2494,
      "og": 2495,
      "Ġ30": 2496,
      "à´¤à´¨": 2497,
      "Ġàªıàª¨": 2498,
      "Ġà°Ĵà°ķ": 2499,
      "ther": 2500,
      "Ġ16": 2501,
      "à²Ĺà²¡": 2502,
      "Ġj": 2503,
      "à®Łà®ķ": 2504,
      "à²¡à²°": 2505,
      "à®¯à®µ": 2506,
      "à¤°à¤¯": 2507,
      "Ġà²Ĩà²¸": 2508,
      "Ġà¥§": 2509,
      "ÙĬ": 2510,
      "Ġà¬²": 2511,
      "âĢ¦": 2512,
      "Ġà¬ĵ": 2513,
      "Ġà¬ī": 2514,
      "Ġàªīàªªàª°": 2515,
      "Ġà¤īà¤¨à¤ķ": 2516,
      "Ġà®ĩà®ª": 2517,
      "à¤®à¤ķ": 2518,
      "Ġà¦ıà¦Ł": 2519,
      "ok": 2520,
      "à¤ªà¤£": 2521,
      "Ġàª¨àªµ": 2522,
      "'s": 2523,
      "Ġà¬ªà¬°": 2524,
      "à²°à²¶": 2525,
      "Ġà¨ķà¨°à¨¦": 2526,
      "Ġà¤ħà¤®": 2527,
      "ĠV": 2528,
      "à¤µà¤¡": 2529,
      "Ġà®ªà®±": 2530,
      "Ġ=": 2531,
      "à¬ī": 2532,
      "ĠTh": 2533,
      "à²¦à²µ": 2534,
      "à¨Ĺà¨°": 2535,
      "Ġà¦¬à¦¸": 2536,
      "à¤¼à¤¾": 2537,
      "à®ļà®©": 2538,
      "Ġà´µà´¨": 2539,
      "Ġà¤¹à¤®": 2540,
      "à±Ĭà°Ĥ": 2541,
      "ĠØªÚ¾": 2542,
      "à¦Ľà¦°": 2543,
      "Ġgo": 2544,
      "àªĺ": 2545,
      "ĠàªĿ": 2546,
      "à¬Ĩ": 2547,
      "Ġà®Ĵà®©": 2548,
      "à¤°à¤Ń": 2549,
      "Ġà¬ļ": 2550,
      "Ġà²ĵ": 2551,
      "àµįâĢį.": 2552,
      "à¦¦à¦°": 2553,
      "à²¶à²¨": 2554,
      "ell": 2555,
      "à±Į": 2556,
      "à¤ľà¤°": 2557,
      "ĠØµ": 2558,
      "«à¥": 2559,
      "Ġà²Ĳ": 2560,
      "per": 2561,
      "Ġdo": 2562,
      "à²ķà²²": 2563,
      "Ġwhe": 2564,
      "ĠÛĶ": 2565,
      "à²ļà²¨": 2566,
      "°ĥ": 2567,
      "à°ĥ": 2568,
      "à¦ķà¦Ł": 2569,
      "Ġhis": 2570,
      "Ġà®ļà®¨": 2571,
      "ÙĪÙĨ": 2572,
      "Ġà¦¦à¦²": 2573,
      "à²ķà²µ": 2574,
      "Ġà¦ł": 2575,
      "âĢĵ": 2576,
      "Ġà²®à²°": 2577,
      "Ġ17": 2578,
      "Ġme": 2579,
      "Ġà´·": 2580,
      "à®ķà®ķ": 2581,
      "Ġà¨®à¨¹": 2582,
      "19": 2583,
      "à´ªà´ķ": 2584,
      "à¦¾-": 2585,
      "à´°à´¦": 2586,
      "Ġà²ĩà²¦à²°": 2587,
      "ĠàªĨàª°": 2588,
      "à¤¹à¤¨": 2589,
      "ical": 2590,
      "Ġà¤ĩà¤¸à¤ķ": 2591,
      "Ġà¦¸à¦°": 2592,
      "à¤µà¤³": 2593,
      "Ġà®®à®Ł": 2594,
      "ions": 2595,
      "ip": 2596,
      "à¦°à¦¶": 2597,
      "à¤µà¤¯": 2598,
      "Ġà´ħà´®": 2599,
      "ik": 2600,
      "à®ķà®´": 2601,
      "Ġà¬¸à¬®": 2602,
      "¨à¥¦": 2603,
      "Ġà²ħà²ª": 2604,
      "Ġà¤¸à¤ķà¤¤": 2605,
      "ous": 2606,
      "Ġà¤ĸà¤°": 2607,
      "Ġ;": 2608,
      "Ġà´ķà´®": 2609,
      "Ġà®ĩà®¤à®©": 2610,
      "Ġtheir": 2611,
      "Ġint": 2612,
      "Ġà®İà®²": 2613,
      "à´İà´¸": 2614,
      "Ġà´¸à´°": 2615,
      "ide": 2616,
      "à¨ķà¨¤": 2617,
      "à´Ĥ,": 2618,
      "ib": 2619,
      "Ġà¦īà¦ł": 2620,
      "ff": 2621,
      "à«ĭ,": 2622,
      "âĢĺ": 2623,
      "à¤¬à¤¤": 2624,
      "ĠÛĮÛģ": 2625,
      "Ġà¦ħà¦¤": 2626,
      "®¹": 2627,
      "à®¹": 2628,
      "Ġà®ħà®¤à®©": 2629,
      "Ġà´ķà´°": 2630,
      "Ġthey": 2631,
      "à®±à®©à®°": 2632,
      "à®°à®ļ": 2633,
      "Ġà°«": 2634,
      "àªĪàª¨": 2635,
      "à´¿,": 2636,
      "à¦¤à¦¬": 2637,
      "à´ķà´²": 2638,
      "ans": 2639,
      "ia": 2640,
      "Ġà¨¸à¨¨": 2641,
      "°«": 2642,
      "à°«": 2643,
      "Ġà¤Ĩà¤®": 2644,
      "à¤¨à¤¸": 2645,
      "à´Łà´¯": 2646,
      "ine": 2647,
      "Ġwhich": 2648,
      "à¨®à¨²": 2649,
      "Ġà´Ĩà´¦": 2650,
      "à²Ĺà²µ": 2651,
      "Ġà´ıà´±": 2652,
      "à¦°à¦¨": 2653,
      "àªĹàª¨": 2654,
      "ind": 2655,
      "àª¸àª®": 2656,
      "à´ªà´¨": 2657,
      "ong": 2658,
      "à²¤à²¹": 2659,
      "à´²à´ķ": 2660,
      "©à§": 2661,
      "Ġà®¹": 2662,
      "à¤¨à¤ķ": 2663,
      "à®±à®¨": 2664,
      "Ġà®ĩà®µ": 2665,
      "à®ļà®¤": 2666,
      "Ġàª¸àª°àªķ": 2667,
      "Ġà²ľà²¨à²°": 2668,
      "Ġcomp": 2669,
      "Ġà¨Ĺà¨Ī": 2670,
      "à¦¤à¦®": 2671,
      "Ġà¨Ľ": 2672,
      "à´ķà´¤": 2673,
      "Ġwho": 2674,
      "à®¯à®Ļ": 2675,
      "Ġbut": 2676,
      "à¤·à¤¯": 2677,
      "Ġad": 2678,
      "ary": 2679,
      "à²§à²¨": 2680,
      "¬à¥": 2681,
      "Ġà¦¬à¦Ľà¦°": 2682,
      "Ġà®µà®ķ": 2683,
      "Ġà¦Ĩà¦ľ": 2684,
      "à§°à¦¤": 2685,
      "Ġà²®à²ķ": 2686,
      "à²ļà²°": 2687,
      "¯à¥": 2688,
      "à¤µà¤ķ": 2689,
      "Ġà°īà°¨": 2690,
      "Ġà¦¯à¦¦": 2691,
      "à²¯à²Ĺà²³": 2692,
      "ated": 2693,
      "Ġà¤ħà¤²": 2694,
      "à²®à²ķ": 2695,
      "Ġà®Ī": 2696,
      "à°¯à°ķ": 2697,
      "àŃĥ": 2698,
      "Ġà´İà´²": 2699,
      "à¬ł": 2700,
      "ÙĨØ¯": 2701,
      "à®¯à®±": 2702,
      "Ġàªīàª¤": 2703,
      "Ġà²¹à²£": 2704,
      "à²¸à²¦": 2705,
      "¯à§": 2706,
      "àª¡àª¨": 2707,
      "Ø¦ÛĮ": 2708,
      "ĠØ§ÛĮÚ©": 2709,
      "à²¥à²³": 2710,
      "à®¤à®©à®°": 2711,
      "à¨°à¨Ł": 2712,
      "Ġà¥©à¥": 2713,
      "àµĨ.": 2714,
      "à¦¤à¦ķ": 2715,
      "Ġà§¨à§¦à": 2716,
      "à²ªà²Ł": 2717,
      "à¬ı": 2718,
      "à¤¯à¤ļ": 2719,
      "Ġà¨¸à¨°à¨ķ": 2720,
      "à¤Īà¤²": 2721,
      "à²°à²Ĺà²³": 2722,
      "à¦°à¦¥à¦®": 2723,
      "à«ĩàªĤ": 2724,
      "àªĩàª¨": 2725,
      "à¬Ľà¬¨": 2726,
      "Ġà®¤à®Ł": 2727,
      "Ø¶": 2728,
      "à²¯à²¸": 2729,
      "Ġà¤ªà¤¹à¤²": 2730,
      "Ġà®ĩà®µà®°": 2731,
      "àª²àª®": 2732,
      "à®±à®ķ": 2733,
      "Ġà®Ĳ": 2734,
      "Ġà´¸à´¹": 2735,
      "Ġà¤®à¤¤": 2736,
      "Ġàª¹àªµ": 2737,
      "à¦¯à¦¬": 2738,
      "cc": 2739,
      "à´ķà´®": 2740,
      "Ġà´ªà´¤": 2741,
      "à¤¯à¤µ": 2742,
      "ĠØ¨Ú¾ÛĮ": 2743,
      "àª¬àª°": 2744,
      "Ġà©Ľ": 2745,
      "Ġà¦¸à¦®à§Ł": 2746,
      "Ġà®Ĩà®Ł": 2747,
      "à°¤à°®": 2748,
      "Ġà´ħà´§": 2749,
      "à¦¯à¦¨": 2750,
      "àªķàª²": 2751,
      "Ġà²ħà²¦à²°": 2752,
      "à²¾.": 2753,
      "à¨ķà¨°": 2754,
      "àª¸àª°": 2755,
      "Ġà´²à´Ń": 2756,
      "à¤ľà¤ª": 2757,
      "ĠØ·": 2758,
      "ØªÛĴ": 2759,
      "Ġà¨¹à¨°": 2760,
      "Ġà¦ķà¦²": 2761,
      "ice": 2762,
      "Ġà®µà®´à®Ļ": 2763,
      "à²·à²¦": 2764,
      "Ġà¥©": 2765,
      "age": 2766,
      "Ġà®Ĩà®¯": 2767,
      "àª®àª¤": 2768,
      "Ġàª¸àª¹": 2769,
      "Ġàª¸àª®àª¯": 2770,
      "Ġà´ħà´Ń": 2771,
      "Ġà¤ªà¤¡": 2772,
      "Ġà¤ľà¤¬": 2773,
      "Ġim": 2774,
      "Ġàªĸàª°": 2775,
      "Ġà¦īà¦¤": 2776,
      "ĠØĮ": 2777,
      "Ġàªľàª°": 2778,
      "à«¨": 2779,
      "Ġàª§àª°": 2780,
      "®Ĩ": 2781,
      "à®Ĩ": 2782,
      "Ġà®ħà®´": 2783,
      "Ġà¤¹à¤°": 2784,
      "Ġà¦¸à¦°à¦ķ": 2785,
      "à§İà¦¸": 2786,
      "Ġà¨¸à¨ķà¨¦": 2787,
      "à²¨à²Ĺà²³": 2788,
      "are": 2789,
      "Ġen": 2790,
      "Ġà¤²à¤ķ": 2791,
      "à¬¿à¥¤": 2792,
      "à²®à²°": 2793,
      "à¤¬à¤Ī": 2794,
      "àªŁàª®": 2795,
      "Ġàªĺàª£": 2796,
      "Ġà¤Ĺà¤Ī": 2797,
      "à²²à²¨": 2798,
      "ap": 2799,
      "ÙĨØ§": 2800,
      "à¦¬à¦¤": 2801,
      "Ġà¦ıà¦²": 2802,
      "à¤ªà¤¦": 2803,
      "Ġà´®à´¤": 2804,
      "¥ľ": 2805,
      "à¥ľ": 2806,
      "Ġ24": 2807,
      "à¤®à¤£": 2808,
      "Ġà²¸à²ļ": 2809,
      "à¬ĩà¬¥": 2810,
      "à¦®à¦²": 2811,
      "à®ªà®®": 2812,
      "Ġone": 2813,
      "à´ķà´¨": 2814,
      "à¦¨à¦ĵ": 2815,
      "àª¨àª®": 2816,
      "à¦¼,": 2817,
      "ry": 2818,
      "à¤Ĥ.": 2819,
      "à¤¸à¤ķ": 2820,
      "à´µà´¯": 2821,
      "à¦ĩà¦²": 2822,
      "à²¡à²¦": 2823,
      "Ġà¤¸à¤Ń": 2824,
      "\"\"": 2825,
      "à¤¯à¤¦": 2826,
      "Ġmore": 2827,
      "Ġà¤¶à¤ķ": 2828,
      "à´ªà´°": 2829,
      "à°¨à°®": 2830,
      "Ġà¥¨": 2831,
      "ÙĪÙĦ": 2832,
      "Ġà¦ıà¦®à¦¨": 2833,
      "Ġà¦Ĩà¦®à¦°": 2834,
      "àª³àªµ": 2835,
      "à«ĤàªĤ": 2836,
      "Ġà¤¬à¤¤": 2837,
      "Ġà¤īà¤¸à¤ķ": 2838,
      "à©ĩà¥¤": 2839,
      "Ġàªľàªµ": 2840,
      "Ġà¨®à¨¨": 2841,
      "Ġà¤ľà¤°": 2842,
      "à®´à®¨": 2843,
      "Ġ50": 2844,
      "à¦¸à¦¨": 2845,
      "à²¬à²²": 2846,
      "Ġà§·": 2847,
      "à´¯à´±": 2848,
      "Ġà²²à²ķ": 2849,
      "à²¨à²¨": 2850,
      "ĠâĢĶ": 2851,
      "ØªÛĮ": 2852,
      "à°°à°¸": 2853,
      "à´¸à´°": 2854,
      "ru": 2855,
      "Ġà°ķà°²": 2856,
      "à°°à°£": 2857,
      "ime": 2858,
      "Ġà²ĩà²¤": 2859,
      "Ġà¤¹à¤ľ": 2860,
      "ĠØ²": 2861,
      "à²¶à²¦": 2862,
      "à¤Ĺà¤³": 2863,
      "Ńà¥": 2864,
      "¨Ĳ": 2865,
      "Ġàªħàª¥": 2866,
      "à¨Ĳ": 2867,
      "à§Łà¦¨": 2868,
      "Ġà¤¸à¤¬": 2869,
      "Ġman": 2870,
      "àªĹàª¤": 2871,
      "à¨¸à¨²": 2872,
      "à¤°à¤ĸ": 2873,
      "à¯į:": 2874,
      "à°µà°²": 2875,
      "ØªØ§": 2876,
      "à®¤à®µà®°": 2877,
      "one": 2878,
      "Ġàª«àª°": 2879,
      "Ġyour": 2880,
      "Ġà´ľà´¨": 2881,
      "à¨°à¨µ": 2882,
      "à²¤à²ķ": 2883,
      "§à³": 2884,
      "Ġàª¬àª¹": 2885,
      "à¨¶à¨¨": 2886,
      "Ġà¤®à¤°": 2887,
      "ĠØªÙĪ": 2888,
      "à¤¤à¤¤": 2889,
      "à²ħ": 2890,
      "act": 2891,
      "Ġà²ķà²Ł": 2892,
      "à¥įâĢį": 2893,
      "à¦Ĺà¦²": 2894,
      "ĠàªĨàªªàªµ": 2895,
      "Ġus": 2896,
      "àª°àª¥": 2897,
      "Ġà¤¸à¤ķ": 2898,
      "àªķàª¡": 2899,
      "à´±à´µ": 2900,
      "Ġà¤ªà¤ķ": 2901,
      "®à¥": 2902,
      "à¦°à¦§": 2903,
      "à±ĩà°Ĥ": 2904,
      "so": 2905,
      "àª·àª£": 2906,
      "ĠàªĨàªĹ": 2907,
      "à¬°à¬ķ": 2908,
      "à²¶à²ķ": 2909,
      "à²®à²Ĺ": 2910,
      "Ġà²Ĩà²ķ": 2911,
      "Ġà¤®à¤²": 2912,
      "Ġà®¨à®Łà®¤": 2913,
      "à¤¨à¤®": 2914,
      "à¦¸à¦®": 2915,
      "à¤·à¤ķ": 2916,
      "Ġ...": 2917,
      "ec": 2918,
      "Ġà®¤à®Ļ": 2919,
      "Ġout": 2920,
      "iz": 2921,
      "ame": 2922,
      "Ġà®īà®Ļ": 2923,
      "à±ģà°ģ": 2924,
      "Ġà¤Ĳà¤¸": 2925,
      "av": 2926,
      "Ġà®ªà®¯": 2927,
      "Ġcont": 2928,
      "ally": 2929,
      "ÛĮØ¯": 2930,
      "à®°à®£à®®": 2931,
      "Ġà¨¬à¨¹": 2932,
      "ere": 2933,
      "Ġà¤¶à¤°": 2934,
      "à¤ªà¤ķ": 2935,
      "à²¯à²µà²¨": 2936,
      "¨Ĭ": 2937,
      "à¨Ĭ": 2938,
      "à¦ķà¦¤": 2939,
      "30": 2940,
      "àŃ±": 2941,
      "ÙĦØ§": 2942,
      "Ġà²ıà²¨": 2943,
      "à°®à°¨": 2944,
      "à´Ńà´µ": 2945,
      "Ġà²¸à²°à²ķ": 2946,
      "ance": 2947,
      "Ġà²¹à²°": 2948,
      "à²Łà²¦": 2949,
      "Ġà¦Ĩà¦¹": 2950,
      "à¤ķà¤¸": 2951,
      "à°²à°²": 2952,
      "Ġà²ħà²®": 2953,
      "Ġà®Ĩà®°": 2954,
      "very": 2955,
      "Ġà¦ĺà¦Łà¦¨": 2956,
      "Ġà¤ħà¤µ": 2957,
      "10": 2958,
      "ence": 2959,
      "à´¹à´¤": 2960,
      "ĠàªĨàªľ": 2961,
      "Ġàªħàª°": 2962,
      "à·": 2963,
      "Ġà¦¹à¦ļ": 2964,
      "à¨ªà¨¤": 2965,
      "Ġà¦ªà¦¦": 2966,
      "à¤¿à¤ĥ": 2967,
      "Ġà¦Ĩà¦¦": 2968,
      "Ġà®ĩà®°à®£": 2969,
      "à®³à®©à®°": 2970,
      "à®¾,": 2971,
      "à¦°à¦Ń": 2972,
      "ĠIt": 2973,
      "Ġà¦ĵà¦ĩ": 2974,
      "Ġà®¨à®²": 2975,
      "ĠÙĨÛģÛĮÚº": 2976,
      "Ġso": 2977,
      "à°¨à°¦": 2978,
      "Ġà¦¸à¦ķà¦²": 2979,
      "Ġà²ªà²Ł": 2980,
      "Ġàªħàª¥àªµ": 2981,
      "Ġà´Ĩà´¶": 2982,
      "Ġà¦ķà¦°à¦Ľ": 2983,
      "Ġà´Ĩà´µà´¶": 2984,
      "Ġà¤§à¤°": 2985,
      "Ġà¦¬à¦¹": 2986,
      "Ġà¦Ĩà¦¶": 2987,
      "à²£à²¦": 2988,
      "à¬ķà¬°": 2989,
      "pl": 2990,
      "Ġà´®à´£": 2991,
      "Ġà®ħà®µà®©": 2992,
      "Ġàª¤àª¥": 2993,
      "à°¤à°¨": 2994,
      "àµįâĢĭ": 2995,
      "Ø¸": 2996,
      "Ġà¤ħà¤¬": 2997,
      "à´²à´µ": 2998,
      "Ġà´Ĩà´ķ": 2999,
      "¨ĵ": 3000,
      "à¨ĵ": 3001,
      "Ġà¦ĩà¦¨": 3002,
      "ĠSt": 3003,
      "Ġà²°à²¸": 3004,
      "Ġcl": 3005,
      "Ġà²ħà²¸": 3006,
      "à¤ľà¤¯": 3007,
      "Ġà²İà²¸": 3008,
      "à®²à®µ": 3009,
      "à¦¨à¦¨": 3010,
      "à¦ªà¦ķ": 3011,
      "Ġà¦¸à¦®à¦¯": 3012,
      "ations": 3013,
      "Ġà¥¨à¥¦": 3014,
      "Ġres": 3015,
      ".,": 3016,
      "able": 3017,
      "Ġà®µà®´à®ķ": 3018,
      "Ġàª²àªĹ": 3019,
      "à®±à®µ": 3020,
      "à®ªà®©": 3021,
      "à¤°à¤ľ": 3022,
      "ake": 3023,
      "à²¦à²µà²°": 3024,
      "à²¯à²µà²°": 3025,
      "Ġà¨¸à¨Ń": 3026,
      "à´ķà´±": 3027,
      "Ø³ÛĮ": 3028,
      "ew": 3029,
      "ĠàªıàªŁàª²": 3030,
      "Ġà´ħà´µà´°": 3031,
      "Ġabout": 3032,
      "Ġà¦¹à¦ĩà¦¯": 3033,
      "à¨¸à¨°": 3034,
      "Ġup": 3035,
      "Ġàªıàª®": 3036,
      "Ġà°ħà°µ": 3037,
      "Ġà´Ĵà´¨": 3038,
      "ĠCh": 3039,
      "Ġinc": 3040,
      "Ġà¦ĩà¦¤": 3041,
      "Ġà¤¶à¤¹à¤°": 3042,
      "ack": 3043,
      "Ġà´ħà´²": 3044,
      "Ġà®īà®Ł": 3045,
      "Ġother": 3046,
      "Ġ21": 3047,
      "ult": 3048,
      "à¬ªà¬°": 3049,
      "Ġà²Ĺà²³": 3050,
      "à²Ĩ": 3051,
      "à²°à²¬": 3052,
      "Ġà¦Ĩà¦ķ": 3053,
      "àµ¼à´¨": 3054,
      "ĠÚ©ÛĮØ§": 3055,
      "Ġà²ħà²¡": 3056,
      "à¦®à¦ķ": 3057,
      "ber": 3058,
      "Ġà®ªà®¯à®©": 3059,
      "à´°à´§": 3060,
      "Ġà¤Ĩà¤§": 3061,
      "àª¡àªµ": 3062,
      "Ġà®īà®¤": 3063,
      "à¤®à¤°": 3064,
      "Ġ/": 3065,
      "Ġwork": 3066,
      "Ġà®ļà®Ł": 3067,
      "à®®à®°": 3068,
      "à´¯à´µ": 3069,
      "à®µà®ķ": 3070,
      "au": 3071,
      "àªĸàª¤": 3072,
      "ĠÙĪÛģ": 3073,
      "orm": 3074,
      "ĠY": 3075,
      "à¤¨à¤¨": 3076,
      "à´ķà´ª": 3077,
      "Ġà¦¢": 3078,
      "à²·à²Ĺà²³": 3079,
      "Ġun": 3080,
      "Ġàªķàª²": 3081,
      "àµģà´Ĥ,": 3082,
      "Ġà®İà®£": 3083,
      "à¥Ī.": 3084,
      "Ġà¤¬à¤°": 3085,
      "Ġà°§": 3086,
      "à²¤à²²": 3087,
      "50": 3088,
      "à¦īà¦¨": 3089,
      "Ġà®ħà®Ļ": 3090,
      "à§Ģà¥¤": 3091,
      "´ł": 3092,
      "à´ł": 3093,
      "Ġà¤¸à¤¦": 3094,
      "Ġà´¬à´¨": 3095,
      "à´°à´ŀ": 3096,
      "Ġyear": 3097,
      "àªĥ": 3098,
      "ook": 3099,
      "Ġà¤µà¤¸": 3100,
      "Ġàªħàª§": 3101,
      "Ġper": 3102,
      "Ġà´¨àµ½à´ķ": 3103,
      "ÙĨÛĮ": 3104,
      "Ġà²¤à²²": 3105,
      "à¨°à¨¬": 3106,
      "Ġà²ħà²µà²¨": 3107,
      "àªķàª®": 3108,
      "à²ľà²ķ": 3109,
      "à²¸à²µ": 3110,
      "Ġ22": 3111,
      "à««": 3112,
      "à®ķà®£": 3113,
      "à´ķà´£": 3114,
      "Ġà®¤à®µ": 3115,
      "Ġà¦ıà¦¤": 3116,
      "à¯ĩ.": 3117,
      "à¤®à¤¸": 3118,
      "ep": 3119,
      "à®³à®©": 3120,
      "ĠØ§Ù¾": 3121,
      "àªħ": 3122,
      "à°¨à°ķ": 3123,
      "ĠâĢĿ": 3124,
      "Ġà®ĩà®Ł": 3125,
      "Ø§Ú©": 3126,
      "à¯į'": 3127,
      "Ġà¨Ĺà¨ı": 3128,
      "à´Łà´±": 3129,
      "Ġà¦¤à¦ĸà¦¨": 3130,
      "à¤°à¤§": 3131,
      "ªà§": 3132,
      "à²°à²¯": 3133,
      "Ġà¤ľà¤®": 3134,
      "Ġà²īà²³": 3135,
      "Ġà´µà´²": 3136,
      "à¨®à¨°": 3137,
      "Ġà´§": 3138,
      "Ġà®¨à®Łà®¨": 3139,
      "Ġà¦ķà¦°à¦²": 3140,
      "à¤ıà¤¸": 3141,
      "Ġà¦Ľà¦¬": 3142,
      "Ġà®µà®²": 3143,
      "Ġwere": 3144,
      "à´·à´¤": 3145,
      "à°¤à°°": 3146,
      "ub": 3147,
      "Ġà²¬à²¦à²²": 3148,
      "Ġà¬ħà¬¨": 3149,
      "Ġà°ħà°¯": 3150,
      "à¤£à¤¤": 3151,
      "à¨¸à¨Ł": 3152,
      "à®µà®¤à®±": 3153,
      "à´ļà´¯": 3154,
      "à¤¨à¤ļ": 3155,
      "à¦¼à§ĭ": 3156,
      "Ġà²¸à²®à²¸": 3157,
      "àªļàª¨": 3158,
      "du": 3159,
      "ire": 3160,
      "à¦¿-": 3161,
      "Ġà²®à²§": 3162,
      "à²§à²°": 3163,
      "Ġà¤ħà¤Ĺ": 3164,
      "à®°à®ª": 3165,
      "Ġà®ķà®Łà®¨": 3166,
      "àªªàª£": 3167,
      "à¨ħà¨¦": 3168,
      "Ġdis": 3169,
      "à²¨à²ķ": 3170,
      "ose": 3171,
      "à¦¬à¦ķ": 3172,
      "à¦Ĺà¦°": 3173,
      "¦à": 3174,
      "ord": 3175,
      "Ġalso": 3176,
      "à¦Łà¦ķ": 3177,
      "à¤¯à¤µà¤¸": 3178,
      "ĠØ±Ûģ": 3179,
      "à³Ĥ,": 3180,
      "à¤¶à¤ķ": 3181,
      "Ġmy": 3182,
      "Ġbeen": 3183,
      "àª¯àª°": 3184,
      "à¤¤à¤¸": 3185,
      "à©Ī.": 3186,
      "àª¯àª¤": 3187,
      "à²°à²µà²¨": 3188,
      "à´°à´µà´°": 3189,
      "ÙħÛĮ": 3190,
      "Ġpart": 3191,
      "Ġà¦¸à¦Ń": 3192,
      "à¤¼à¥Ģ": 3193,
      "Ġà²ħà²ķ": 3194,
      "Ġà´¨à´Łà´ª": 3195,
      "à°¬à°¡": 3196,
      "à²ķà²Ł": 3197,
      "Ġapp": 3198,
      "Ġà«§": 3199,
      "à²ªà²¦": 3200,
      "Ġà²¹à²²à²µ": 3201,
      "à®¾?": 3202,
      "Ġà´¸à´¨": 3203,
      "Ġà²Ĩà²¤": 3204,
      "Ġà¦¸à¦¤": 3205,
      "à¶": 3206,
      "à°ķà°²": 3207,
      "à«§à«": 3208,
      "à¤¯à¤ª": 3209,
      "Ġà´īà´¦": 3210,
      "à¤¹à¤£à¤ľ": 3211,
      "à¤¬à¤²": 3212,
      "ike": 3213,
      "à®ļà®²": 3214,
      "à³¦": 3215,
      "à´§à´¤": 3216,
      "à²§à²µ": 3217,
      "à´Ļà´¨": 3218,
      "àªĸàªµ": 3219,
      "Ġà¨ı": 3220,
      "àµ¼à´®": 3221,
      "Ġà¤¬à¤ļ": 3222,
      "àŃ¦": 3223,
      "Ġà®ħà®ķ": 3224,
      "Ġsa": 3225,
      "Ġthere": 3226,
      "Ġà²İà²¦": 3227,
      "ÙĦÛģ": 3228,
      "Ġà¨¤à¨°": 3229,
      "Ġà´Ĳ": 3230,
      "Ġà²¸à²Ń": 3231,
      "Ġà¦ħà¦¬à¦¸": 3232,
      "Ġ100": 3233,
      "vel": 3234,
      "Ġà®ħà®³": 3235,
      "à®²à®°": 3236,
      "à²£à²µ": 3237,
      "à³Ĩà³Ĥà²Ĥ": 3238,
      "Ġà´¨à´®": 3239,
      "Ġà´²à´ķ": 3240,
      "à¦ĩà¦Ł": 3241,
      "à²µà²³": 3242,
      "Ġev": 3243,
      "à°Łà°°": 3244,
      "Ġà¨¥": 3245,
      "ount": 3246,
      "à´¯à´¸": 3247,
      "à²ĸà²²": 3248,
      "Ġhad": 3249,
      "ite": 3250,
      "Ġà¦ķà¦°à¦¬": 3251,
      "à¤§à¤°": 3252,
      "à¤¨à¤¤": 3253,
      "ĠØ¬ÙĪ": 3254,
      "Ġag": 3255,
      "Ġà°µà°ļ": 3256,
      "à²°à²³": 3257,
      "à²¸à²¨": 3258,
      "ass": 3259,
      "àµ¼à´Ł": 3260,
      "Ġà´ħà´ª": 3261,
      "Ġà¥ª": 3262,
      "àªĪàªı": 3263,
      "à¤Ńà¤µ": 3264,
      "àŃŁà¬°": 3265,
      "à³Ĥ.": 3266,
      "à²¡à²³": 3267,
      "à¦°à¦¯": 3268,
      "Ġpe": 3269,
      "à¦¯à¦¬à¦¸": 3270,
      "à¥ĭ,": 3271,
      "now": 3272,
      "Ġà®¤à®±": 3273,
      "à²Łà²µ": 3274,
      "Ġar": 3275,
      "reat": 3276,
      "Ø§Ø²": 3277,
      "ach": 3278,
      "Ġà®ħà®³à®µ": 3279,
      "Ġà®Ĩà®ļ": 3280,
      "à¦¯à¦®": 3281,
      "Ġà¤Ĩà¤¨": 3282,
      "à¯į;": 3283,
      "à¤Ĺà¤µ": 3284,
      "à¦°à¦ļ": 3285,
      "Ġà´®à´°": 3286,
      "Ġà¤°à¤¸": 3287,
      "à¤¦à¤µ": 3288,
      "à²ķà²¨": 3289,
      "à«©": 3290,
      "à³įâĢĭ": 3291,
      "àªķàª¸": 3292,
      "à°¨à°Ł": 3293,
      "à¤¨à¤²": 3294,
      "Ġà¦¹à¦ĩà¦¤": 3295,
      "àª°àª¦": 3296,
      "ĠĠĠĠĠĠĠĠĠĠĠĠĠĠĠĠ": 3297,
      "à®ªà®ķ": 3298,
      "Ġà´¨à´Łà´¨": 3299,
      "à¤¥à¤®": 3300,
      "Ġà²°à²ķ": 3301,
      "Ġà²µà²¸": 3302,
      "Ġà¦«à¦²": 3303,
      "à¬¬à¬°": 3304,
      "ue": 3305,
      "Ġà¤°à¤ĸ": 3306,
      "à§Ģ,": 3307,
      "à¯į!": 3308,
      "Ġà´µà´³": 3309,
      "à²°à²ª": 3310,
      "Ġà°®à°¨": 3311,
      "Ġà²ªà²¦": 3312,
      "Ġte": 3313,
      "Ġà®ĩà®£": 3314,
      "Ġà®µà®Ł": 3315,
      "ace": 3316,
      "ĠØ§ÛĮ": 3317,
      "Ġà²¤à²ª": 3318,
      "Ġà¤¤à¤¯": 3319,
      "Ġà´ĩà´ª": 3320,
      "à¤²à¤µ": 3321,
      "Ġà¦Ŀ": 3322,
      "ign": 3323,
      "ree": 3324,
      "Ġà¤Ĩà¤Ĺ": 3325,
      "à¤¸à¤¹": 3326,
      "à¨ķà¨¸": 3327,
      "Ġà¦¬à¦²à¦²": 3328,
      "à¤¨à¤µ": 3329,
      "Ġàª¸àª¤": 3330,
      "à¬°à¬¤": 3331,
      "à²°à²ķà²°à²£": 3332,
      "à¬ŀ": 3333,
      "³ĸ": 3334,
      "à³ĸ": 3335,
      "à¯ĩ,": 3336,
      "Ġà®ķà®¤": 3337,
      "Ġà¤Ī": 3338,
      "Ġà®ĩà®±": 3339,
      "Ġà²¹à²¤": 3340,
      "à¤¤à¤ļ": 3341,
      "à°ªà°¡": 3342,
      "à³Ĩà³ĸ": 3343,
      "à±į,": 3344,
      "Ġà¤¬à¤¸": 3345,
      "à¬¼": 3346,
      "Ġqu": 3347,
      "Ġà§¨à§¦à§§à§": 3348,
      "Ġà¤Ĺà¤ı": 3349,
      "Ġàª¬àª§": 3350,
      "à°¨à°¨": 3351,
      "Ġ23": 3352,
      "à¦ĩà¦ķ": 3353,
      "Ġour": 3354,
      "Ġà«©": 3355,
      "à²¯à²ķà²°": 3356,
      "à¦²à¦¬": 3357,
      "Ġà²ļà²°": 3358,
      "ĠàªĨàªªàª£": 3359,
      "Ġà¦ħà¦ª": 3360,
      "Ġà¨ħà¨¨": 3361,
      "Ġà´Ĩà´¯": 3362,
      "à«ª": 3363,
      "à²¾,": 3364,
      "Ġà¦¸à¦®à¦¸": 3365,
      "à¥¦à": 3366,
      "à¥¦à¥": 3367,
      "Ġà¤ľà¤Ĺ": 3368,
      "à«ī": 3369,
      "à¦¸à¦²": 3370,
      "ĠàªħàªŃ": 3371,
      "à®°à®°": 3372,
      "Ġà®īà®¯à®°": 3373,
      "à¦®à¦°": 3374,
      "Ġàªªàª¤": 3375,
      "à°°à°µ": 3376,
      "°İ": 3377,
      "à°İ": 3378,
      "à¤ľà¤²": 3379,
      "Ġà¤Ĩà¤¶": 3380,
      "Ġà²ķà²£": 3381,
      "à§§à§": 3382,
      "ail": 3383,
      "à¨ªà¨°": 3384,
      "Ġà°¸à°°": 3385,
      "à¤ĸà¤²": 3386,
      "ction": 3387,
      "à´ķà´°à´£": 3388,
      "Ġà¦²à¦ķ": 3389,
      "Ġà¨ľà¨¦": 3390,
      "Ġà¤®à¤¦": 3391,
      "Ø§Ø¦ÛĮ": 3392,
      "Ġtime": 3393,
      "à¤ľà¤ķ": 3394,
      "à°µà°¤": 3395,
      "Ġà¤ħà¤ķ": 3396,
      "Ġà´ĩà´°": 3397,
      "ition": 3398,
      "Ġà¦ķà¦¬": 3399,
      "à¨°à¨§": 3400,
      "Ġà¨ħà¨ľ": 3401,
      "ish": 3402,
      "à¨²à¨ķ": 3403,
      "ÙĪØ¯": 3404,
      "¦ħ": 3405,
      "à¦ħ": 3406,
      "à¤®à¤¦": 3407,
      "Ġà¨ķà¨®": 3408,
      "Ġà¨ĩà¨¨": 3409,
      "Ġà®İà®ª": 3410,
      "à²®à²µ": 3411,
      "à©ĩ,": 3412,
      "à²ľà²°": 3413,
      "à´°à´¶": 3414,
      "Ġâ": 3415,
      "Ġàª¥àªĩ": 3416,
      "Ġà¦°à¦ķ": 3417,
      "ress": 3418,
      "ase": 3419,
      "à¦¹à¦°": 3420,
      "ll": 3421,
      "à¥Ģ-": 3422,
      "Ġthem": 3423,
      "Ġà´ķà´³": 3424,
      "àª¾àªĤ,": 3425,
      "Ġà¦Ĺà¦¤": 3426,
      "Ġà¥«": 3427,
      "à§ĭà¦ģ": 3428,
      "à³ģ:": 3429,
      "à²µà²¹": 3430,
      "à´±à´ķ": 3431,
      "Ġà¤ļà¤°": 3432,
      "Ġà´īà´ªà´¯": 3433,
      "ays": 3434,
      "à´¤à´ª": 3435,
      "à´¯à´²": 3436,
      "à¤³à¤¤": 3437,
      "Ġà¨ħà¨§": 3438,
      "Ġà¦¨à¦¤": 3439,
      "à¤¬à¤¦": 3440,
      "Ġà®İà®Ļ": 3441,
      "à²µà²¸": 3442,
      "à¨°à¨Ĺ": 3443,
      "à¤¨à¤°": 3444,
      "Ġ40": 3445,
      "Ġà¥ªà¥": 3446,
      "àªŁàªķ": 3447,
      "Ġà¦°à§Ł": 3448,
      "Ġà²¨à²Ĺ": 3449,
      "à¦·à¦ķ": 3450,
      "à²°à²Ĺ": 3451,
      "à´¬à´¨": 3452,
      "à²¯à²µà²¸": 3453,
      "àµĨà´¾": 3454,
      "à°Ĥ.": 3455,
      "Ġany": 3456,
      "à²Ĥ.": 3457,
      "à¨Ĩà¨¨": 3458,
      "Ġàªĩàª¨": 3459,
      "Ġà²ıà²ķ": 3460,
      "Ġà´īà´¤": 3461,
      "à¦§à¦¨": 3462,
      "Ġà¤¶à¤ķà¤¤": 3463,
      "à§ĭà¥¤": 3464,
      "à©ŀ": 3465,
      "Ġà¤ļà¤²": 3466,
      "Ġ199": 3467,
      "Ġà¦īà¦ªà¦°": 3468,
      "Ġwould": 3469,
      "Ġà¤¯à¤¦": 3470,
      "Ġà¨¨à¨µ": 3471,
      "Ġà¨²à¨Ĺ": 3472,
      "ond": 3473,
      "Ġà¤Ńà¤°": 3474,
      "´Ĳ": 3475,
      "à´Ĳ": 3476,
      "Ġoff": 3477,
      "Ġ28": 3478,
      "Ġsome": 3479,
      "Ġà°ĩà°¦": 3480,
      "Ġà¤Ĩà¤ªà¤£": 3481,
      "à¤µà¤ļ": 3482,
      "Ġà²§à²°": 3483,
      "àª®àª²": 3484,
      "à¤¸à¤¦": 3485,
      "Ġbec": 3486,
      "ople": 3487,
      "Ġàª¥àª¤": 3488,
      "à´¯à´®à´¨": 3489,
      "à®ķà®ļ": 3490,
      "Ġà®İà®©à®ķ": 3491,
      "ings": 3492,
      "à²ĩ": 3493,
      "à´°à´³": 3494,
      "¨à§": 3495,
      "à®°à®Ļ": 3496,
      "Ġtr": 3497,
      "à´®à´¨": 3498,
      "Ġà²¸à²¤": 3499,
      "Ġà´ĩà´µ": 3500,
      "à°°à°Ń": 3501,
      "à¦ĸà¦¤": 3502,
      "à¨ķà¨²": 3503,
      "Ġà²¸à²¦à²¸": 3504,
      "à°¯à°¤": 3505,
      "«à§": 3506,
      "Ġà²ħà²Ĺà²¤": 3507,
      "à¦°à¦ĵ": 3508,
      "à¦¨à¦ķ": 3509,
      "à´µà´¦": 3510,
      "Ġà¤®à¤¹à¤¤": 3511,
      "Ġà´ªà´Ļ": 3512,
      "Ġà¬ĸ": 3513,
      "àª¹àª¨": 3514,
      "à°¸à°°": 3515,
      "®à§": 3516,
      "à¦¯à¦¤": 3517,
      "Ġàªħàª¹": 3518,
      "Ġà¤¶à¤¬": 3519,
      "Ġà¥¤à¥¤": 3520,
      "Ġà¤¸à¤®à¤¯": 3521,
      "11": 3522,
      "Ġ26": 3523,
      "à´²à´¨": 3524,
      "Ġà²ĩà²µà²°": 3525,
      "à®¾.": 3526,
      "à°¨à°µ": 3527,
      "Ġimp": 3528,
      "à²Ńà²¦à²²": 3529,
      "Ġà²ħà²¦à²¨": 3530,
      "à«§": 3531,
      "erv": 3532,
      "Ġà²®à²³": 3533,
      "ĠàªĬ": 3534,
      "ang": 3535,
      "Ø§Ø±ÛĮ": 3536,
      "Ġà°ľà°°": 3537,
      "Ġà®İà®¨": 3538,
      "Ġàªħàª²": 3539,
      "à²Ĺà²¦à²²": 3540,
      "à²¸à²ķ": 3541,
      "Ġ+": 3542,
      "à²µà²µà²°": 3543,
      "Ġà´ħà´µà´¸": 3544,
      "à°¾,": 3545,
      "à²°à²§": 3546,
      "à¤²à¤¬": 3547,
      "à´ļà´°": 3548,
      "àªŀ": 3549,
      "à®¤à®°à®µ": 3550,
      "ark": 3551,
      "à¨¼à¨¿": 3552,
      "Ġà®¤à®£": 3553,
      "à²¡à²¨": 3554,
      "à´ľà´¨": 3555,
      "ĠHe": 3556,
      "à¤¼à¥ĩ": 3557,
      "Ġà¨¸à¨¹": 3558,
      "Ġà®īà®¯": 3559,
      "à®ªà®µà®°": 3560,
      "Ġ]": 3561,
      "à¨¹à¨°": 3562,
      "Ġà°Ĩà°°": 3563,
      "ory": 3564,
      "Ġà´īà´³": 3565,
      "à«ģàªĤ,": 3566,
      "Ġà°¤à°¨": 3567,
      "à¦°à¦ĩ": 3568,
      "à¨Ĺà¨¤": 3569,
      "à®°à®©": 3570,
      "à®³à®ķ": 3571,
      "ov": 3572,
      "Ġà¦¤à¦¥": 3573,
      "Ġà¤¹à¤µ": 3574,
      "à§°à¦£": 3575,
      "Ġà´İà´¸": 3576,
      "à´²à´®": 3577,
      "à¤µà¤ª": 3578,
      "Ġà¬¥": 3579,
      "àªªàª¤": 3580,
      "à²¡à²Ĺ": 3581,
      "à¨¼à©Ģ": 3582,
      "Ġàªīàªªàª¯": 3583,
      "à°ªà°Ł": 3584,
      "à²¸à²¬à²¹": 3585,
      "ents": 3586,
      "Ġ27": 3587,
      "Ġà²ĩà²¤à²°": 3588,
      "à´§à´¨": 3589,
      "Ġàªµàª¸": 3590,
      "Ġher": 3591,
      "à°·à°¨": 3592,
      "à²Ĳ": 3593,
      "ÙĪÙħ": 3594,
      "Ġà¤īà¤®": 3595,
      "à¤§à¤µ": 3596,
      "Ġà¦īà¦ļ": 3597,
      "Ġà¤¨à¤ķ": 3598,
      "Ġà¬®à¬§": 3599,
      "à¦ĩà¦¯": 3600,
      "Ġà®¨à®©": 3601,
      "à®µà®ļ": 3602,
      "àª§àª¨": 3603,
      "ian": 3604,
      "ĠØªÚ¾Ø§": 3605,
      "à¬°à¬®": 3606,
      "form": 3607,
      "Ġàª°àª¸": 3608,
      "Ġà¤°à¤ķ": 3609,
      "à¤ļà¤°": 3610,
      "Ġwhen": 3611,
      "Ġwhat": 3612,
      "à²¿:": 3613,
      "à²³à²¬": 3614,
      "à¬°à¬°": 3615,
      "ough": 3616,
      "Ġà¦ľà¦²": 3617,
      "à´±à´Ļ": 3618,
      "à®°à®ķ": 3619,
      "à¨²à¨¤": 3620,
      "Ġà°¤à°°": 3621,
      "Ġàªµàªĸàª¤": 3622,
      "Ġits": 3623,
      "àµ»à´¸": 3624,
      "à¦ļà¦²": 3625,
      "Ġàª¹àªľ": 3626,
      "Ġà¨ħà¨¸": 3627,
      "à¤£à¤¯": 3628,
      "Ġà¬Ł": 3629,
      "à´®à´¸": 3630,
      "Ġà²ĩà²µ": 3631,
      "Ġà¦Ĩà¦°à¦ĵ": 3632,
      "Ġà¦¬à¦¡": 3633,
      "à§ģà¦ģ": 3634,
      "Ġà¨¸à¨¬": 3635,
      "à²®à²¤": 3636,
      "Ġlike": 3637,
      "ile": 3638,
      "à´·à´®": 3639,
      "Ġà®ķà®³": 3640,
      "Ġà¦Ĩà¦¤": 3641,
      "Ġà²Ĺà²®à²¨": 3642,
      "Ġpeople": 3643,
      "à´Ĺà´Ļ": 3644,
      "à¦·à§Ł": 3645,
      "à¦¨à¦¸": 3646,
      "à°¦à°²": 3647,
      "nder": 3648,
      "Ġà²¬à²¦": 3649,
      "à¨ħà¨°": 3650,
      "àª®àªľ": 3651,
      "à²ªà²ķ": 3652,
      "Ġà®ĩà®Ļ": 3653,
      "à¦·à¦¯": 3654,
      "Ġà®ĩà®¯à®ķ": 3655,
      "àªĹàª²": 3656,
      "à´¾à´Ĥ.": 3657,
      "ild": 3658,
      "21": 3659,
      "Ġà¤¤à¤¦": 3660,
      "à²Ĺà²£": 3661,
      "Ġà¤ķà¤¸": 3662,
      "à²¨à²°": 3663,
      "à¤µà¤®": 3664,
      "à§°à§°": 3665,
      "Ú¯Ø±": 3666,
      "§àŃ": 3667,
      "Ġrec": 3668,
      "à«¦à«¦": 3669,
      "à¤¿,": 3670,
      "Ġcomm": 3671,
      "Ġà²®à²Ĺ": 3672,
      "Ġknow": 3673,
      "à°¯à°²": 3674,
      "Ġà®ªà®³": 3675,
      "à´±à´ª": 3676,
      "Ġà¨ķà¨¹": 3677,
      "Ġà¤Ĩà¤ªà¤ķ": 3678,
      "à¤ªà¤²": 3679,
      "à°¯à°µ": 3680,
      "Ġà¦Ĳ": 3681,
      "Ġover": 3682,
      "à¥ģà¤ĥ": 3683,
      "ors": 3684,
      "Ġàª¦àª°àª®": 3685,
      "à¤ļà¤²": 3686,
      "Ġà®ªà®´": 3687,
      "Ġà®µà®³à®°": 3688,
      "à²°à²ľ": 3689,
      "àª®àª®": 3690,
      "à´¨à´²": 3691,
      "à¦¨à¦¬": 3692,
      "Ġà²İà²ļ": 3693,
      "Ġàªħàªª": 3694,
      "Ġàªľàª¨": 3695,
      "Ġà¤ĺà¤Łà¤¨": 3696,
      "Ġà²Ĵà²³": 3697,
      "Ġà²Ĵà²¤": 3698,
      "Ġà¤ħà¤ľ": 3699,
      "ens": 3700,
      "Ġà²ħà²µà²°à²¨": 3701,
      "Ġà°ķà°¨": 3702,
      "ove": 3703,
      "ĠThis": 3704,
      "Ġà³§à³": 3705,
      "à®°à®µ": 3706,
      "Ġthan": 3707,
      "Ġàªħàª¤": 3708,
      "Ġà®¨à®ķà®°": 3709,
      "à´Ĺà´®": 3710,
      "à´ķàµ¾à´ķ": 3711,
      "à¤¹à¤®": 3712,
      "à¦¶à¦ķ": 3713,
      "15": 3714,
      "Ġà¦¨à§Ł": 3715,
      "Ġà²¨à²²": 3716,
      "à¦®à¦¬": 3717,
      "à®°à®Ł": 3718,
      "Ġpre": 3719,
      "à°ªà°°": 3720,
      "à´±à´¨": 3721,
      "à¤ıà¤®": 3722,
      "Ġà¬¸à¬¹": 3723,
      "à¬ĩà¬Ľ": 3724,
      "®ī": 3725,
      "Ġà¬ĺ": 3726,
      "àªķàªµ": 3727,
      "ÙĦÙħ": 3728,
      "18": 3729,
      "Ġà´Ĩà´£": 3730,
      "à´±à´¯": 3731,
      "Ġà°ĵ": 3732,
      "Ńà§": 3733,
      "ĠÙħÙĨ": 3734,
      "à®ī": 3735,
      "Ø«": 3736,
      "à¤Ńà¤°": 3737,
      "àªĹàª®": 3738,
      "à¨µà¨°": 3739,
      "à±ĭà°Ĥ": 3740,
      "Ġà´ĵà´«": 3741,
      "à²µà²ķ": 3742,
      "Ġà¦¸à¦¦": 3743,
      "à¦Ĺà¦£": 3744,
      "à²°à²Ń": 3745,
      "à°Ĥ,": 3746,
      "Ġà¤ľà¤²": 3747,
      "à²¦à²Ĺ": 3748,
      "Ġnew": 3749,
      "Ø§ÙĨÛĮ": 3750,
      "Ġà¬ıà¬¬": 3751,
      "à¥ĩà¤Ĥ.": 3752,
      "à´ķà´£à´®": 3753,
      "Ġà¤ķà¤ª": 3754,
      "Ġà¤Ĩà¤Ī": 3755,
      "à¯į-": 3756,
      "12": 3757,
      "Ġà´ķà´²": 3758,
      "ound": 3759,
      "Ġàª¶àª¹": 3760,
      "à´ľà´¯": 3761,
      "**": 3762,
      "Ġà¦¨à¦¯": 3763,
      "à¤¤à¤ª": 3764,
      "à¤¸à¤ļ": 3765,
      "à°²à°®": 3766,
      "à¥Īà¤Ĥ,": 3767,
      "Ġà®īà®¤à®µ": 3768,
      "à¯į)": 3769,
      "Ġà¤¬à¤²": 3770,
      "Ġà²®à²¦": 3771,
      "à®¯à®Ł": 3772,
      "Ġà°ħà°§": 3773,
      "ĠÚĪ": 3774,
      "à¤¡à¤ķ": 3775,
      "à¤®à¤µ": 3776,
      "Ġno": 3777,
      "à¤ıà¤Ĺ": 3778,
      "Ġà¦īà¦¨": 3779,
      "à¬¤à¬°": 3780,
      "int": 3781,
      "à©«": 3782,
      "à¦¦à¦ķ": 3783,
      "Ġà¥¬": 3784,
      "Ġà²®à²²": 3785,
      "à«¬": 3786,
      "ĠÂ": 3787,
      "Ġà¨ĩà¨²": 3788,
      "à®©à®µ": 3789,
      "Ġàªł": 3790,
      "àª³àªķ": 3791,
      "àªľàª¬": 3792,
      "à¤¦à¤®": 3793,
      "à´¤àµ½": 3794,
      "à´ªà´£": 3795,
      "à²¨à²¦à²²": 3796,
      "à¦¹à¦¤": 3797,
      "àª°àª¹": 3798,
      "Ġà®ĵà®Ł": 3799,
      "Ġà¤¬à¤¢": 3800,
      "à´Łà´®": 3801,
      "à¦¸à¦ª": 3802,
      "Ġà¦īà¦²": 3803,
      "ĠàªŁàªķ": 3804,
      "''": 3805,
      "irst": 3806,
      "Ġà´ªà´¦": 3807,
      "Ġà´İà´Ł": 3808,
      "Ġà°®à°¹": 3809,
      "lic": 3810,
      "Ú©Ú¾": 3811,
      "Ġsc": 3812,
      "Ġà¦ªà¦¥": 3813,
      "à¨²à¨¦": 3814,
      "vers": 3815,
      "à¯Ĩà®¾": 3816,
      "Ġà²¨à²Ĺà²°": 3817,
      "Ġà°ħà°¦": 3818,
      "Ġàª¥àªµ": 3819,
      "àŃŁà¬ķ": 3820,
      "Ġà²Ĩà²¹": 3821,
      "à«®": 3822,
      "à¨°à¨¥": 3823,
      "Ġà¤¸à¤¨": 3824,
      "Ġà¬«": 3825,
      "Ġà®İà®®": 3826,
      "Ġàª¤àª°àª«": 3827,
      "Ġà´ªà´²": 3828,
      "Ġà®ļà®ķ": 3829,
      "Ġà´ªà´ķ": 3830,
      "Ġà´ħà´¸": 3831,
      "Ġif": 3832,
      "¬à§": 3833,
      "Ġà®ħà®µà®³": 3834,
      "à®²à®Ļ": 3835,
      "Ġà¨¸à¨¥": 3836,
      "itt": 3837,
      "àª·àª¨": 3838,
      "à¨¨à¨ķ": 3839,
      "ious": 3840,
      "à¬¨à¬°": 3841,
      "Ġà¤¬à¤¡": 3842,
      "Ġà®īà®Łà®²": 3843,
      "à¦°à¦ª": 3844,
      "à°²à°¤": 3845,
      "à´¤à´¯": 3846,
      "Ġà²¬à²³à²¸": 3847,
      "à´Ļàµ¾à´ķ": 3848,
      "Ġà²ĩà²¦à²¨": 3849,
      "Ġà¨ķà¨°à¨ķ": 3850,
      "Äģ": 3851,
      "à²³à²µ": 3852,
      "à¦¬à¦¬": 3853,
      "Ø§Úº": 3854,
      "àªľàªķ": 3855,
      "à¨µà¨¨": 3856,
      "à²·à²¨": 3857,
      "à´µàµ¼": 3858,
      "à¦°à¦²": 3859,
      "à®Łà®µ": 3860,
      "ĠØ±ÙĪ": 3861,
      "°±": 3862,
      "à°±": 3863,
      "Ġà¤¤à¤°à¤¹": 3864,
      "Ġà®¤à®¯": 3865,
      "mer": 3866,
      "Ġàªµàªļ": 3867,
      "Ġacc": 3868,
      "Ġà®ªà®Ļ": 3869,
      "wn": 3870,
      "à¤ķà¤¨": 3871,
      "Ġà¨µà¨§": 3872,
      "àª®àªķ": 3873,
      "àªŁàª£": 3874,
      "Ġà´µà´´": 3875,
      "ĠØ¨ÛĮ": 3876,
      "ink": 3877,
      "à¤·à¤¤": 3878,
      "à¦¯à¦¬à¦¹": 3879,
      "àª¾-": 3880,
      "Ġà°µà°°": 3881,
      "Ġ29": 3882,
      "oy": 3883,
      "à¤Łà¤¤": 3884,
      "à¤Ĺà¤®": 3885,
      "à®¤à®Ļ": 3886,
      "Ġà®ļà®Ļ": 3887,
      "ĠØ¯Ø±": 3888,
      "à¯ĩà®¾": 3889,
      "Ġà¤Ĩà¤ķ": 3890,
      "à«Ń": 3891,
      "à´®à´°": 3892,
      "à´µà´ķ": 3893,
      "à´ļà´¨": 3894,
      "Ġà²Ĭ": 3895,
      "Ġà¨ľà¨¨": 3896,
      "ĠÙĪØ§ÙĦ": 3897,
      "Ġà¨µà¨²": 3898,
      "ric": 3899,
      "à¦¨à¦Ł": 3900,
      "à®²à®ª": 3901,
      "Ġam": 3902,
      "Ø°": 3903,
      "à°ªà°¤": 3904,
      "Ġà®Ĭà®°": 3905,
      "Ø§Ø³": 3906,
      "àª¯àª²": 3907,
      "à¤§à¤ķ": 3908,
      "ĠØ§Ùħ": 3909,
      "Ġà²¬à²²": 3910,
      "à¤¡à¤£": 3911,
      "à¦ķà¦¬": 3912,
      "Ġà¤ıà¤¸": 3913,
      "fter": 3914,
      "Ġà²¬à²¸": 3915,
      "àª°àª¬": 3916,
      "Ġà´µàµ¼": 3917,
      "à¤°à¤ķà¤°à¤£": 3918,
      "ĠÙħØ¹": 3919,
      "à®ķà®Ļ": 3920,
      "à²¨à²¸": 3921,
      "Ġà¦¹à¦ĩà¦²": 3922,
      "Ġà´¤à´®": 3923,
      "ĠàªĨàªµàª¤": 3924,
      "Ġà®ķà®´": 3925,
      "ĠÙĦÛĮ": 3926,
      "à´±à´±": 3927,
      "ces": 3928,
      "à¤§à¤¤": 3929,
      "Ø§Ø¦ÛĴ": 3930,
      "Ġà²¨à²¨à²Ĺ": 3931,
      "Ġà®¤à®©à®¤": 3932,
      "ob": 3933,
      "à²Ľ": 3934,
      "à¥ĩà¤Ĥ,": 3935,
      "Ġà²¤à²°": 3936,
      "Ġà¦ĺà¦Ł": 3937,
      "Ġà²ħà²µà²ķ": 3938,
      "à¬«": 3939,
      "Ġà¤¬à¤¦à¤²": 3940,
      "Ġà§§à§¯à§": 3941,
      "Ġà²Ĵà²³à²Ĺ": 3942,
      "à´¡à´¨": 3943,
      "à²¹à²°": 3944,
      "ĠàªĨàªµàª¶": 3945,
      "Ġinto": 3946,
      "¨¢": 3947,
      "à¨¢": 3948,
      "Ġà´¤à´Ł": 3949,
      "à²¶à²µ": 3950,
      "Ġà§§": 3951,
      "ne": 3952,
      "Ġà¨¸à¨µ": 3953,
      "Ġà°ķà°°": 3954,
      "à®®à®£": 3955,
      "Ġà¦¶à¦¤": 3956,
      "Ġtw": 3957,
      "Ġà´¨à´Łà´ªà´Ł": 3958,
      "Ġà´ħà´ķ": 3959,
      "Ġ''": 3960,
      "Ġà²ıà²°": 3961,
      "Ġà´¨à´Łà´ķ": 3962,
      "Ġà¤Ńà¤µ": 3963,
      "Ġà¤ħà¤ļ": 3964,
      "à®ªà®µ": 3965,
      "Ġà®ħà®ļ": 3966,
      "rough": 3967,
      "Ġà¤ķà¤Ī": 3968,
      "à®ķà®µà®²": 3969,
      "à´ªà´¯": 3970,
      "à®ªà®¨": 3971,
      "à¨Ĺà¨²": 3972,
      "Ġà¨ĺà¨°": 3973,
      "à´ªà´±": 3974,
      "à²¯à²ª": 3975,
      "à°µà°¨": 3976,
      "à¤ĩà¤¨": 3977,
      "à²¶à²¦à²²": 3978,
      "iff": 3979,
      "Ġà´®à´²à´¯": 3980,
      "à¦¹à¦²": 3981,
      "à¥ĩ-": 3982,
      "ade": 3983,
      "°Ĩ": 3984,
      "à¤µà¤¶": 3985,
      "à°Ĩ": 3986,
      "Ġà²¹à²³": 3987,
      "Ġà®İà®©à®µ": 3988,
      "ĠÙ¹": 3989,
      "à®®à®ķ": 3990,
      "ĠÛģÙħ": 3991,
      "Ġà²¦à²°": 3992,
      "||": 3993,
      "àª²àªµ": 3994,
      "Ġà´ļà´°": 3995,
      "à´°à´³à´¤": 3996,
      "Ġ`": 3997,
      "à´¸à´¨": 3998,
      "àª°àª¶": 3999,
      "ual": 4000,
      "à³Ĩ:": 4001,
      "Ġà²µà²°à²¦": 4002,
      "à¤³à¤£": 4003,
      "Ġà§©à§": 4004,
      "à²·à²¤": 4005,
      "Ġà²Ĵà²Ł": 4006,
      "àª³àª¨": 4007,
      "Øº": 4008,
      "à¤ªà¤¸": 4009,
      "à¨¤à¨®": 4010,
      "ause": 4011,
      "Ġà®ļà®¤": 4012,
      "Ġà®®à®²": 4013,
      "à¯į?": 4014,
      "à¦ķà§°": 4015,
      "Ġà¨¸à¨°": 4016,
      "à°°à°¨": 4017,
      "à´¦à´°": 4018,
      "Ġà®¨à®Łà®µà®Ł": 4019,
      "Ġind": 4020,
      "à¦¸à¦¬": 4021,
      "Ġro": 4022,
      "à§ĩ?": 4023,
      "à²¡à²µ": 4024,
      "Ġà¦¸à¦ķ": 4025,
      "à²®à²²": 4026,
      "Ġà¦ıà¦¨": 4027,
      "à¤°à¤¯à¤¤": 4028,
      "ĠØ¯ÙĪ": 4029,
      "ĠÙħØŃ": 4030,
      "Ġà²¨à²Ł": 4031,
      "à¦·à¦¤": 4032,
      "à°µà°¡": 4033,
      "Ġà¦ľà¦®": 4034,
      "ons": 4035,
      "à°°à°¹": 4036,
      "ood": 4037,
      "à¦£à¦®": 4038,
      "à²·à²ķ": 4039,
      "ĠÙģØ±": 4040,
      "Ġà®ĩà®Łà®®": 4041,
      "Ġàªľàª®": 4042,
      "Ġàªķàª®": 4043,
      "Ġà¥§à¥¦": 4044,
      "à²ķà²¦": 4045,
      "Ġà«ª": 4046,
      "à¦¬à¦ª": 4047,
      "à¨°à¨ļ": 4048,
      "à¨²à¨¸": 4049,
      "à´¯àµ»": 4050,
      "Ġà´µà´³à´°": 4051,
      "à´°à´µàµ¼à´¤": 4052,
      "Ġhow": 4053,
      "Ġà®ħà®¤à®±": 4054,
      "à²¨à²µà²¨": 4055,
      "ates": 4056,
      "Ġà²ĩà²¦à²ķ": 4057,
      "Ġà¬°à¬¹": 4058,
      "ÙĨÚ¯": 4059,
      "ÛĮØª": 4060,
      "Ġà¤ħà¤¥": 4061,
      "Ġget": 4062,
      "Ġsaid": 4063,
      "Ġà¦ĩà¦¹": 4064,
      "Ġà°ħà°®": 4065,
      "Ġà¤ªà¤¶": 4066,
      "à´°à´Ł": 4067,
      "àªīàª¨": 4068,
      "Ġàªµàª¡": 4069,
      "Ġà¤Ĩà¤ł": 4070,
      "à¤²à¤®": 4071,
      "§¦à§": 4072,
      "Ġà´ªà´£": 4073,
      "à´·à´¯": 4074,
      "à¤ķà¤®": 4075,
      "à³įâĢį": 4076,
      "Ġà¬ıà¬ķ": 4077,
      "Ġunder": 4078,
      "à¦ªà¦¦": 4079,
      "Ġà®©": 4080,
      "ĠàªĹàª£": 4081,
      "Ġà¤Ĭ": 4082,
      "Ġà®Ĩà®±": 4083,
      "old": 4084,
      "Ġà¦ĺà¦°": 4085,
      "à®£à®ª": 4086,
      "Ġà²ĸà²°": 4087,
      "¥¨à¥": 4088,
      "à²¬à²³": 4089,
      "à²²à²¯": 4090,
      "à®ªà®±": 4091,
      "Ġà´ªà´Ł": 4092,
      "ĠàŃ¨": 4093,
      "Ġà®ķà®±": 4094,
      "à¤²à¤Ĺ": 4095,
      "Ġà¦¯à¦ĸà¦¨": 4096,
      "à²ķà²·": 4097,
      "à¨ĸà¨£": 4098,
      "Ġà¦¶à¦°": 4099,
      "ĠWe": 4100,
      "hed": 4101,
      "Ġà¦Ĺà¦²": 4102,
      "Ġàªªàª¸": 4103,
      "àµįâĢĮ.": 4104,
      "à¦¤à¦¤": 4105,
      "à®Łà®©à®°": 4106,
      "Ġact": 4107,
      "à´±à´°": 4108,
      "Ġàª¸àªµ": 4109,
      "ĠØ¯ÛĮ": 4110,
      "ĠAs": 4111,
      "à¤µà¤ľ": 4112,
      "à¦ĩà¦¤": 4113,
      "ater": 4114,
      "´Ĩ": 4115,
      "à´Ĩ": 4116,
      "Ġà§¨": 4117,
      "àª¯àª¦": 4118,
      "low": 4119,
      "Ġmay": 4120,
      "à´Łà´²": 4121,
      "Ġjust": 4122,
      "Ġà¥«à¥": 4123,
      "Ġàª¬àª¦": 4124,
      "à¨ľà¨¨": 4125,
      "Ġà´¶à´°": 4126,
      "Ġà®Ĩà®¤": 4127,
      "Ġcons": 4128,
      "à®°à®²": 4129,
      "ĠâĢĺâĢĺ": 4130,
      "à«¯": 4131,
      "àŃľ": 4132,
      "à´¤à´ķ": 4133,
      "à¤łà¤ķ": 4134,
      ")-": 4135,
      "à²¢": 4136,
      "Ġ198": 4137,
      "à¦®à¦¦": 4138,
      "à¥¨à¥": 4139,
      "Ġ31": 4140,
      "Ġà¨ħà¨ķ": 4141,
      "à¦¼à§Ģ": 4142,
      "à²¶à²Ĺà²³": 4143,
      "ĠÛ": 4144,
      "à²µà²µ": 4145,
      "Ġà²Ĩà²¨": 4146,
      "Ġà°ªà°¦": 4147,
      "Ġfirst": 4148,
      "Ġà°ħà°²": 4149,
      "àªķàª¤": 4150,
      "à´¸à´®": 4151,
      "Ġà®ķà®®": 4152,
      "°ĺ": 4153,
      "à¤µà¤¡à¤£": 4154,
      "Ġà¦ªà§ľ": 4155,
      "à¦ķà¦¦": 4156,
      "à°ĺ": 4157,
      "ĠÙ¾ÛĮ": 4158,
      "!!": 4159,
      "Ú¾Ø±": 4160,
      "à²·à²°": 4161,
      "à¬¨à¬Ļ": 4162,
      "Ġà¨ķà¨²": 4163,
      "ck": 4164,
      "à¨®à¨£": 4165,
      "à¤®à¤ª": 4166,
      "ĠàªĨàª§": 4167,
      "à²£à²¦à²²": 4168,
      "à´µà´²": 4169,
      "Ġà®¤à®ķà®µà®²": 4170,
      "ĠàªĨàª¶": 4171,
      "Ġà²Ĵà²¬": 4172,
      "à¨Łà¨¨": 4173,
      "à²Ĺà²¬": 4174,
      "Ġrep": 4175,
      "Ġà¨¸à¨Ł": 4176,
      "Ġà®µà®£": 4177,
      "Ġdes": 4178,
      "à²®à²¯": 4179,
      "à´°à´¹": 4180,
      "àŃįâĢĮ": 4181,
      "à¦Ľà¦¨": 4182,
      "à´¬à´°": 4183,
      "17": 4184,
      "Ġà²Ĺà²£": 4185,
      "àŃĩà¬¾": 4186,
      "à¤¦à¤¯": 4187,
      "Ġà©§": 4188,
      "ĠÛģÛĮ": 4189,
      "ĥà®ª": 4190,
      "à¨§à¨°": 4191,
      "Ġonly": 4192,
      "à´ŀà´¤": 4193,
      "°ł": 4194,
      "à°ł": 4195,
      "ĠØ¨Ø±": 4196,
      "te": 4197,
      "ĠÙħÙĦ": 4198,
      "Ġàª¥àª¶": 4199,
      "à²¦à²¦": 4200,
      "à¤¿-": 4201,
      "à¤ĸà¤¨": 4202,
      "à°ķà°¡": 4203,
      "ities": 4204,
      "à¦¤à§°": 4205,
      "Ġà¤īà¤ļ": 4206,
      "tern": 4207,
      "sel": 4208,
      "à´µà´£": 4209,
      "Ġà¤¸à¤µ": 4210,
      "à¯ģ:": 4211,
      "Ġà®Īà®Ł": 4212,
      "à°Ĺà°²": 4213,
      "Ġà®ķà®µ": 4214,
      "Ġà®ªà®Łà®¤": 4215,
      "ath": 4216,
      "Ġà¤¸à¤ª": 4217,
      "à¦®à¦¸": 4218,
      "Ġà¤°à¤µ": 4219,
      "°ŀ": 4220,
      "à°ŀ": 4221,
      "à´Ĺà´¸": 4222,
      "Ġà²µà²¹": 4223,
      "aw": 4224,
      "à¦²à§Ł": 4225,
      "Ġà¦Ĩà¦ª": 4226,
      "ĠàªĽàª¤": 4227,
      "ments": 4228,
      "Ġà¦ıà¦ĸ": 4229,
      "à¬°à¬£": 4230,
      "Ġà¤¨à¤°": 4231,
      "Ġà¨ķà¨°à¨µ": 4232,
      "à¤ķà¤Ł": 4233,
      "25": 4234,
      "Ġfe": 4235,
      "ng": 4236,
      "Ġà®īà®©": 4237,
      "Ġà¤ħà¤¦": 4238,
      "16": 4239,
      "ning": 4240,
      "à²²à²Ń": 4241,
      "rit": 4242,
      "ational": 4243,
      "Ġà²Ĩà²¶": 4244,
      "à¦ĩà¦¬": 4245,
      "Ġàª¤àªª": 4246,
      "Ġàªħàª¸": 4247,
      "Ġà¦¦à¦°": 4248,
      "Ġà²ľà²¤": 4249,
      "Ġà´°à´ķ": 4250,
      "à¤¬à¤¨": 4251,
      "à®³à®Ļ": 4252,
      "Ġ60": 4253,
      "Ġà¦ĸà¦¬à¦°": 4254,
      "lud": 4255,
      "ĠàªŃàª°": 4256,
      "ife": 4257,
      "Ġà¤§à¤¨": 4258,
      "à§°à¦ķ": 4259,
      "Ġrel": 4260,
      "ject": 4261,
      "Ġà¦ªà¦ķ": 4262,
      "à®ªà®¤à®±": 4263,
      "àªĹàªµ": 4264,
      "Ø§Ø¹": 4265,
      "àª°àª§": 4266,
      "à©Ģ.": 4267,
      "ĠÛĮ": 4268,
      "à°Łà°²": 4269,
      "Ġàªīàª¦": 4270,
      "à§ĩ-": 4271,
      "à¬¿à¬ģ": 4272,
      "Ġà¦Ĩà¦ĩà¦¨": 4273,
      "Ġneed": 4274,
      "Ġà°Ĩà°¯à°¨": 4275,
      "àª¦àª®": 4276,
      "14": 4277,
      "à¤®à¤Ĺ": 4278,
      "Ġà¨Ĩà¨¦": 4279,
      "à´·àµ»": 4280,
      "Ġshe": 4281,
      "à¦¦à¦²": 4282,
      "à°£à°®": 4283,
      "Ġà¤ħà¤¹": 4284,
      "à³ĨâĢĻ": 4285,
      "à²·à²ķà²°": 4286,
      "à²ķà²¤": 4287,
      "à²µà²ľà²¨": 4288,
      "à´¶à´¨": 4289,
      "à²°à²¯à²¤": 4290,
      "ĠÙħÙĪ": 4291,
      "Ġà²ĺà²Łà²¨": 4292,
      "Ġà´Ĩà´¨": 4293,
      "à¦¬à§°": 4294,
      "à¦ĸà¦²": 4295,
      "Ġà¬ľà¬£": 4296,
      "Ġà°İà°¨": 4297,
      "Ġ2019": 4298,
      "à²Łà²²": 4299,
      "à´¨à´µà´°": 4300,
      "Ġ2018": 4301,
      "ĠUn": 4302,
      "Ġbet": 4303,
      "àª°àª¥àª®": 4304,
      "Ġà««": 4305,
      "à°ķà°®": 4306,
      "Ġà¨¸à¨¤": 4307,
      "à®£à®µà®°": 4308,
      "Ġà²Ĵà²ª": 4309,
      "à¤¿à¥Ĵ": 4310,
      "Ġà´ĩà´µà´°": 4311,
      "Ġà¤¸à¤ļ": 4312,
      "àªıàª¸": 4313,
      "Ġàª°àªľ": 4314,
      "à³Ĭà³ķ": 4315,
      "à°ľà°¨": 4316,
      "Ġà¨ķà¨Ī": 4317,
      "Ġà®īà®²à®ķ": 4318,
      "à®°à®¸": 4319,
      "à§ĩà¦ģ": 4320,
      "Ġàªīàª®": 4321,
      "à¤¸à¤µ": 4322,
      "à®ªà®²": 4323,
      "ĠRe": 4324,
      "à°Łà°¨": 4325,
      "à°Ĺà°°": 4326,
      "à²¨à²¤": 4327,
      "à¤¯à¤¯": 4328,
      "à²¹à²²": 4329,
      "Ġ35": 4330,
      "ĠØ¨ÙĨ": 4331,
      "Ġà´¶à´ķ": 4332,
      "Ġà²ħà²¦à²ķ": 4333,
      "Ġà®ķà®©": 4334,
      "ĠWh": 4335,
      "Ġà¦¬à¦ķ": 4336,
      "Ġàª¤àª®àª¨": 4337,
      "Ġà¤¬à¤ľ": 4338,
      "Ġà¤¨à¤¯": 4339,
      "à²Ĺà²¨": 4340,
      "à®´à®²": 4341,
      "ÙĦÛĴ": 4342,
      "ph": 4343,
      "à¦¹à¦¸": 4344,
      "à¤Ĺà¤¨": 4345,
      "Ġà´ħà´ŀ": 4346,
      "Ø§ÙĤ": 4347,
      "Ġà®ĩà®Łà®¤": 4348,
      "ĠÙ¾Ûģ": 4349,
      "Ø¹Ø¯": 4350,
      "Ġà´ĸ": 4351,
      "Ġà²¬à²¡": 4352,
      "à²Łà²Ĺ": 4353,
      "Ġà¨Ŀ": 4354,
      "ĠàªĨàª¤": 4355,
      "à²¨à²ª": 4356,
      "Ġ\"\"": 4357,
      "à¤¤à¤¦": 4358,
      "à´ªà´Ł": 4359,
      "à¯Ĥ.": 4360,
      "à®£à®©": 4361,
      "à¦ıà¦°": 4362,
      "à®ŀà®°": 4363,
      "àªĸàª¨": 4364,
      "Ø§ØªÚ¾": 4365,
      "à²¦à²³": 4366,
      "Ġà¬ķà¬¹": 4367,
      "´ĩ": 4368,
      "Ġà¦ıà¦ķà¦ľà¦¨": 4369,
      "à´ĩ": 4370,
      "à¦¨à§°": 4371,
      "Ġ$": 4372,
      "àª¾àªĤ.": 4373,
      "Ġà¤¢": 4374,
      "Ġà¤īà¤²": 4375,
      "Ø§ØŃ": 4376,
      "à¤¡à¤°": 4377,
      "à²¤à²ªà²¡": 4378,
      "Ġmost": 4379,
      "Ġthese": 4380,
      "Ġprov": 4381,
      "Ġà²¶à²ķ": 4382,
      "ise": 4383,
      "Ø±Ùģ": 4384,
      "à¤·à¤¦": 4385,
      "Ġà®Ĵà®ª": 4386,
      "Ġà®īà®Łà®©": 4387,
      "àª¨àªµ": 4388,
      "Ø¨Ø±": 4389,
      "à®µà®¨": 4390,
      "Ġà¤īà¤Ń": 4391,
      "à¤²à¤ļ": 4392,
      "àª²àªķ": 4393,
      "à³ģ?": 4394,
      "Ġà¤ªà¤°à¤®": 4395,
      "Ø¯ÛĮ": 4396,
      "Ġà¬§": 4397,
      "à¤ħà¤°": 4398,
      "Ġàªķàªª": 4399,
      "à´¹à´®": 4400,
      ".)": 4401,
      "Ġyears": 4402,
      "ĠØ¢Ù¾": 4403,
      "Ġà¤¯à¤¥": 4404,
      "Ġà¤¨à¤®": 4405,
      "Ġà¬¬à¬°": 4406,
      "Ġà²ķà²ļ": 4407,
      "à°µà°ļ": 4408,
      "à°²à°¯": 4409,
      "Ġà¤®à¤ľ": 4410,
      "ram": 4411,
      "Ġàªıàª¸": 4412,
      "Ġà²®à²Ł": 4413,
      "Ġà¨ªà¨¤": 4414,
      "Ġà¤ĭ": 4415,
      "à¦°à¦¹à¦£": 4416,
      "Ġà®²à®Ł": 4417,
      "Ġà´ħà´¯": 4418,
      "Ġà®ĩà®¤à®±": 4419,
      "Ġà¦ıà¦¦": 4420,
      "Ġà¤µà¤ķ": 4421,
      "Ġà®īà®£à®°": 4422,
      "à²¹à²¨": 4423,
      "à³ĩ.": 4424,
      "à¨°à¨Ń": 4425,
      "Ġà¤Ĩà¤¸": 4426,
      "ĠØ¬Ø³": 4427,
      "à®İà®¸": 4428,
      "Ġem": 4429,
      "à°Ĺà°®": 4430,
      "ĠÙħØ³": 4431,
      "Ġà¦ķà§Ł": 4432,
      "à¨¬à¨²": 4433,
      "Ġatt": 4434,
      "à®£à®°": 4435,
      "Ġdiff": 4436,
      "à´£à´¤": 4437,
      "Ġà²®à²¨à²¸": 4438,
      "ĠàªĵàªĽ": 4439,
      "Ġtwo": 4440,
      "ful": 4441,
      "Ġàªĵàª«": 4442,
      "à¦Ńà¦¬": 4443,
      "àŃĩà¥¤": 4444,
      "à²Ĩà²°": 4445,
      "àª¶àª®": 4446,
      "à´²à´Ļ": 4447,
      "ĠØº": 4448,
      "we": 4449,
      "Ġà¦¶à¦ķ": 4450,
      "à¨®à¨¤": 4451,
      "ĠÙħØ±": 4452,
      "Ġà²ĩà²·": 4453,
      "à¦ĩà¦°": 4454,
      "Ġà¤īà¤ªà¤¸": 4455,
      "à´µà´¨à´¨": 4456,
      "à¤ľà¤¤": 4457,
      "Ġà¤ķà¤¥": 4458,
      "àªľàªµ": 4459,
      "Ġstud": 4460,
      "ool": 4461,
      "à¤µà¤¦": 4462,
      "Ġà°ªà°¨": 4463,
      "à°¤à°²": 4464,
      "à°°à°¯": 4465,
      "à¨£à¨ķ": 4466,
      "Ġà¦ħà¦«": 4467,
      "Ġà®ķà®²à®¨": 4468,
      "Ġà°·": 4469,
      "àµ¼à´ļ": 4470,
      "à°µà°®": 4471,
      "à®£à®¤": 4472,
      "à¤ªà¤·": 4473,
      "Ġà¤¤à¤¬": 4474,
      "à©§": 4475,
      "Ġà¤Łà¤ķ": 4476,
      "àµ»à´±": 4477,
      "iss": 4478,
      "Ø¯Ûģ": 4479,
      "Ø§ÙĨÛĴ": 4480,
      "à¨ķà¨Ł": 4481,
      "à¤¹à¤¸": 4482,
      "----": 4483,
      "à®´à®®": 4484,
      "Ġà²¤à²¯": 4485,
      "Ġà¤Ĺà¤£": 4486,
      "àµ¼à´µ": 4487,
      "à´Ĥ:": 4488,
      "ÙĲ": 4489,
      "Ġà´ħà´°": 4490,
      "ÙĦØ§Ùħ": 4491,
      "¦¢": 4492,
      "à¦¢": 4493,
      "à¤¡à¤µ": 4494,
      "Ġàªķàª°àª¶": 4495,
      "Ġà°ħà°°": 4496,
      "à¤ļà¤ķ": 4497,
      "à¤¡à¤³": 4498,
      "Ġà²ħà²·": 4499,
      "à²·à²µ": 4500,
      "à´±à´²": 4501,
      "ÙĪÛĮ": 4502,
      "Ġà®Ĩà®®": 4503,
      "Ġà¦ķà¦¤": 4504,
      "à²°à²£à²µ": 4505,
      "Ġà¤ĩà¤¤à¤°": 4506,
      "Ġexp": 4507,
      "Ġhim": 4508,
      "ts": 4509,
      "Ġà²Ĩà²§": 4510,
      "Ġ2017": 4511,
      "Ġà´ĩà´²": 4512,
      "àª°àªŃ": 4513,
      "Ġà°ħà°Ń": 4514,
      "à¤Ĺà¤¡": 4515,
      "Ġà°ħà°¤": 4516,
      "Ġàªľàª¤": 4517,
      "Ġà¤¨à¤Ĺà¤°": 4518,
      "ĠØ¨Ûģ": 4519,
      "à²¯à²¬": 4520,
      "Ù¹Ø±": 4521,
      "°ħ": 4522,
      "à°ħ": 4523,
      "Ġthrough": 4524,
      "Ġà´µà´ķ": 4525,
      "à¨¸à¨¦": 4526,
      "à°°à°ª": 4527,
      "Ġà¤®à¤¤à¤¦": 4528,
      "Ġà¦ħà¦¬à¦¶": 4529,
      "Ġà®ıà®©": 4530,
      "Ġà¤īà¤ł": 4531,
      "à¦¥à¦¨": 4532,
      "ĠÛĮØ§": 4533,
      "ks": 4534,
      "à®¯à®µà®°": 4535,
      "àª¡àª°": 4536,
      "à°ļà°¨": 4537,
      "ĠàªħàªĹ": 4538,
      "ĠØ§Ø¨": 4539,
      "Ġà¦ªà¦¤": 4540,
      "à¤¶à¤¯": 4541,
      "ced": 4542,
      "olog": 4543,
      "Ġà®¤à®¨": 4544,
      "à¤¶à¤²": 4545,
      "à¤®à¤¹": 4546,
      "ĠàªľàªĹ": 4547,
      "Ġà°µà°¸": 4548,
      "Ġà®ħà®µà®°à®¤": 4549,
      "à¤ĸà¤°": 4550,
      "Ġà¨Ńà¨°": 4551,
      "Ġà´ĵà´°": 4552,
      "à¤ľà¤¸": 4553,
      "à²®à²£": 4554,
      "Ġà´ªà´ł": 4555,
      "own": 4556,
      "Ġà²¬à²¹à²³": 4557,
      "à°¨à°ª": 4558,
      "à¤¾à¥Ĵ": 4559,
      "à²®à²¸": 4560,
      "Ġinv": 4561,
      "Ġà¦ĵà§Ł": 4562,
      "à®ļà®ª": 4563,
      ".\"": 4564,
      "Ġreg": 4565,
      "13": 4566,
      "erm": 4567,
      "à´İà´«": 4568,
      "Ġà¦ħà¦¸à¦®": 4569,
      "Ġàª®àª¦": 4570,
      "Ġà´Ĵà´´": 4571,
      "Ġà¥Ń": 4572,
      "à¨Īà¨Ĩ": 4573,
      "Ġà¨ħà¨ª": 4574,
      "à¦¬à¦¦": 4575,
      "àª¯àªµ": 4576,
      "à³Ĩ?": 4577,
      "à°ļà°¡": 4578,
      "Ġà²¤à²¡": 4579,
      "22": 4580,
      "les": 4581,
      "ah": 4582,
      "à²°à²ļ": 4583,
      "Ġà¤Ĩà¤µà¤¶": 4584,
      "à¤Ĥ,": 4585,
      "Ġpr": 4586,
      "Ġàªµàª°àª¸": 4587,
      "Ġà°ĩà°ª": 4588,
      "à²¡à²¬à²¹": 4589,
      "Ġà¤¤à¤ª": 4590,
      "ĠàªĨàª®": 4591,
      "Ù¹ÛĮ": 4592,
      "ĠÚ©Ø±ÙĨÛĴ": 4593,
      "à®¤à®¨": 4594,
      "com": 4595,
      "Ġàªĺàª°": 4596,
      "à²¹à²¤": 4597,
      "à²¿-": 4598,
      "Ġà´®à´¨à´¸": 4599,
      "Ġà¦¬à§°": 4600,
      "à¤¡à¤¤": 4601,
      "àª³àª¤": 4602,
      "fore": 4603,
      "à´¹à´¨": 4604,
      "Ġà´ĩà´Ł": 4605,
      "à²³à²¦": 4606,
      "à²°à²¦à²°": 4607,
      "à²³à²ķ": 4608,
      "ĠàªĨàª¨": 4609,
      "Ġà¥®": 4610,
      "Ġà°Ĩà°®": 4611,
      "à¦ıà¦¸": 4612,
      "à¨°à¨¡": 4613,
      "Ġà®ĩà®ļ": 4614,
      "Ġàªħàªµ": 4615,
      "¨à³": 4616,
      "Ġà¦ħà¦ķ": 4617,
      "Ġà¤ĳà¤«": 4618,
      "Ġà®µà®¯à®¤": 4619,
      "àª¡àª®": 4620,
      "Ġ2016": 4621,
      "à³ĭà²Ĥ": 4622,
      "àª°àªľ": 4623,
      "à¨¦à¨²": 4624,
      "à°¡à°²": 4625,
      "à¦®à¦£": 4626,
      "Ġà¥¬à¥": 4627,
      "ĠâĢ¢": 4628,
      "à¤¢à¤²": 4629,
      "à¤µà¤Ł": 4630,
      "Ġà¦¹à¦ĵà§Ł": 4631,
      "Ġà¨¬à¨²": 4632,
      "Ġsee": 4633,
      "Ġmany": 4634,
      "Ġà¦°à¦¬": 4635,
      "Ġà´¨à´Ł": 4636,
      "ĠàªªàªŁ": 4637,
      "à¨²à¨®": 4638,
      "Ġ197": 4639,
      "àªļàª°": 4640,
      "à¥¦à¥¦": 4641,
      "à´§à´ª": 4642,
      "à°·à°¯": 4643,
      "Ġà¨ĵ": 4644,
      "Ġà¦ķà¦ĸà¦¨": 4645,
      "Ġtra": 4646,
      "lect": 4647,
      "Ġafter": 4648,
      "à´¿:": 4649,
      "à®±à®²": 4650,
      "Ġpo": 4651,
      "àªĵàªı": 4652,
      "Ġwell": 4653,
      "à²¯à²Ĺà²³à²¨": 4654,
      "Ġàª®àª¤": 4655,
      "Ġà¤ªà¤¡à¤²": 4656,
      "ĠØ³Ø±": 4657,
      "Ġpers": 4658,
      "99": 4659,
      "à¤£à¤¸": 4660,
      "Ġà²ĩà²¬": 4661,
      "âĢĻâĢĻ": 4662,
      "à´ķà´ļ": 4663,
      "Ġà®µà®ļ": 4664,
      "àªľàª¯": 4665,
      "Ġàª¬àª¦àª²": 4666,
      "Ġsuch": 4667,
      "à©ľà¨ķ": 4668,
      "Ġà¤¸à¤®à¤¸": 4669,
      "à´ĺà´Łà´¨": 4670,
      "à¦¯à¦¸": 4671,
      "à°°à°¦": 4672,
      "Ġà²¹à²¸": 4673,
      "Ġinclud": 4674,
      "à²ľà²µ": 4675,
      "Ġ2014": 4676,
      "Ġà²ĵà²¦": 4677,
      "Ġà®Ĩà®²": 4678,
      "Ġà¨¢": 4679,
      "ĠàªĪàª¨": 4680,
      "à¤³à¤²": 4681,
      "ĠÚ¯ÛĮØ§": 4682,
      "à°°à°ľ": 4683,
      "ific": 4684,
      "Ġàª¸àª«": 4685,
      "à¤¶à¤¤": 4686,
      "Ġà²İà²·": 4687,
      "à´¸à´Ń": 4688,
      "ert": 4689,
      "Ġà¦¤à¦°": 4690,
      "àª£àª¨": 4691,
      "àµĢà´Ĥ": 4692,
      "àª£àªµ": 4693,
      "à±ĩ.": 4694,
      "à²¨à²Ĺ": 4695,
      "Ġà´¤à´¯": 4696,
      "àªĵàª®": 4697,
      "Ġà®·": 4698,
      "ĠàªĺàªŁ": 4699,
      "ident": 4700,
      "à¤Łà¤®": 4701,
      "ied": 4702,
      "40": 4703,
      "ĠØ§Ù¾ÙĨÛĴ": 4704,
      "®ı": 4705,
      "ĠØªÚ¾ÛĴ": 4706,
      "Ġà´ķà´Ł": 4707,
      "hen": 4708,
      "à®ı": 4709,
      "à°Łà°ķ": 4710,
      "Ø§Ùģ": 4711,
      "Ġà¤¦à¤¹": 4712,
      "Ġdec": 4713,
      "Ġà´®à´¹": 4714,
      "ĠàŃ§àŃ": 4715,
      "Ġà¬®à¬¹": 4716,
      "Ġà°¤à°®": 4717,
      "Ġà®īà®£à®µ": 4718,
      "àªĸàª°": 4719,
      "Ġà¤īà¤ªà¤²à¤¬": 4720,
      "amp": 4721,
      "à¤¦à¤ķ": 4722,
      "àª²àª¤": 4723,
      "Ġà¬ħà¬§": 4724,
      "à¦°à¦Ł": 4725,
      "Ġà®īà®²": 4726,
      "à¤®à¤¯": 4727,
      "Ġà©Ļ": 4728,
      "Ġà²Ńà²ķ": 4729,
      "Ġà°ħà°ª": 4730,
      "ĠÙħÛĮ": 4731,
      "à¬¬à¬¨": 4732,
      "à´¨à´µ": 4733,
      "Ġà¦Ĺà¦£": 4734,
      "ee": 4735,
      "Ġà°īà°¦": 4736,
      "Ġà¬¡": 4737,
      "Ġà²¬à²£": 4738,
      "à®°à®¤à®®": 4739,
      "à«ħ": 4740,
      "Ġà¦īà¦ªà¦¸": 4741,
      "ick": 4742,
      "ĠØªØ¹": 4743,
      "ĠNew": 4744,
      "Ġwhere": 4745,
      "Ġà¦ħà¦¥": 4746,
      "Ú©Ø±": 4747,
      "à´¶à´Ļ": 4748,
      "Ġcould": 4749,
      "Ġà®Ĩà®°à®®": 4750,
      "Ġà¦ıà¦Ĺ": 4751,
      "Ġà¬Ĩà¬¸": 4752,
      "àª®àª°": 4753,
      "à¤²à¤°": 4754,
      "ative": 4755,
      "à«ĩ?": 4756,
      "à²£à²Ĺ": 4757,
      "à¯į...": 4758,
      "Ø§Ø¬": 4759,
      "round": 4760,
      "Ġà²¬à²³à²ķ": 4761,
      "àª²àª°": 4762,
      "Ġà¨ł": 4763,
      "Ġà¦Ĩà¦ĩ": 4764,
      "uch": 4765,
      "à¦¸à¦ķ": 4766,
      "ĠAnd": 4767,
      "Ġà´¸àµ¼à´ķ": 4768,
      "amil": 4769,
      "Ġpos": 4770,
      "à´§à´®": 4771,
      "à¨ªà¨¨": 4772,
      "Ġà´ľà´¯": 4773,
      "Ġra": 4774,
      "Ġà¦ħà¦ªà¦°": 4775,
      "hing": 4776,
      "à¥Ģà¤Ĥ,": 4777,
      "à¤ķà¤£": 4778,
      "à¤¿.": 4779,
      "Ġà´Ńà´°à´£": 4780,
      "Ġ2015": 4781,
      "à²¥à²®": 4782,
      "Ġà¦¶à¦¬": 4783,
      "Ġà®ľà®©": 4784,
      "ĠCom": 4785,
      "ĠØ°": 4786,
      "Ġà®ĩà®²à®Ļ": 4787,
      "Ġà²ħà²µà²³": 4788,
      "Ġsy": 4789,
      "ating": 4790,
      "à²¸à²Ĺ": 4791,
      "Ġà¦¦à¦ķ": 4792,
      "à²¹à²³": 4793,
      "Ġà¤ĵà¤°": 4794,
      "à¨£à¨Ĺ": 4795,
      "àªľàªª": 4796,
      "à¨¾à¨Ĥ,": 4797,
      "ĠàªĹàªĪ": 4798,
      "àª¤àªķ": 4799,
      "à¥Īà¤ĥ": 4800,
      "à²ļà²°à²£": 4801,
      "Ġ\"\"\"": 4802,
      "à°¦à°®": 4803,
      "à´°à´ĸ": 4804,
      "60": 4805,
      "ĠInd": 4806,
      "Ġà´ķà´¥": 4807,
      "Ġà¤¨à¤¸à¤²": 4808,
      "àª¨àª¸": 4809,
      "Ġà¥§à¥¯à¥": 4810,
      "à¤ªà¤Ł": 4811,
      "Ġevery": 4812,
      "à°®à°°": 4813,
      "Ġà¦ķà¦²à¦ķ": 4814,
      "lp": 4815,
      "Ġàª¸àªª": 4816,
      "Ġà´ıà´¤": 4817,
      "à¦łà¦¨": 4818,
      "Ġcol": 4819,
      "Ġà¤ªà¤µ": 4820,
      "any": 4821,
      "Ġbl": 4822,
      "¥©": 4823,
      "à¤µà¤Ń": 4824,
      "Ġà°ĸ": 4825,
      "Ġàª®àª¹àª¤": 4826,
      "ÛĮÙħ": 4827,
      "Ġà®®à®´": 4828,
      "Ġà®Ĵà®¤": 4829,
      "Ġà¤¦à¤ķ": 4830,
      "à§ĭ,": 4831,
      "Ġshould": 4832,
      "à¤°à¤¥à¤®": 4833,
      "àª®àª¦": 4834,
      "Ġà´Ĩà´³": 4835,
      "à¤¦à¤¶": 4836,
      "à¤¨à¤¹": 4837,
      "Ġà¤¹à¤¤": 4838,
      "àµģ,": 4839,
      "ÚĨÚ¾": 4840,
      "Ġà²Ĩà²«": 4841,
      "à±į.": 4842,
      "Ġserv": 4843,
      "Ġsupp": 4844,
      "Ġà¤¸à¤§": 4845,
      "à°Ĺà°¨": 4846,
      "Ġmake": 4847,
      "ĠĠĠ": 4848,
      "Ġpol": 4849,
      "ĠàªĺàªŁàª¨": 4850,
      "à¬ļà¬¨": 4851,
      "Ġà¤¸à¤¬à¤¸": 4852,
      "à±ĩ,": 4853,
      "Ġà¦ĵà¦°": 4854,
      "à²°à²¤à²¦": 4855,
      "Ġsub": 4856,
      "Ġà°īà°ª": 4857,
      "Ġà¤®à¤Ĺ": 4858,
      "à¥Ģà¤Ĥ.": 4859,
      "Ġà§©": 4860,
      "à¨°à¨ª": 4861,
      "hip": 4862,
      "¥§": 4863,
      "à¨ķà¨Łà¨°": 4864,
      "à¨Ĩà¨¦": 4865,
      "Ġà¦¸à¦¦à¦¸": 4866,
      "Ú©Ûģ": 4867,
      "Ġvery": 4868,
      "Ġ&": 4869,
      "Ġà¦¯à¦¥": 4870,
      "à²Łà²¦à²²": 4871,
      "à´¶à´¤": 4872,
      "rib": 4873,
      "Ġà®Ĵà®µ": 4874,
      "Ġà´®à´°à´£": 4875,
      "à§ģ,": 4876,
      "à¦¸à¦°": 4877,
      "à¤°à¤¦à¤°": 4878,
      "à°¨à°°": 4879,
      "àªĩàªı": 4880,
      "à¤¢à¤¤": 4881,
      "à²µà²¯": 4882,
      "à¦«à¦²": 4883,
      "Ġà¦ħà¦Ĺ": 4884,
      "Ġbecause": 4885,
      "Ġà¤Ĩà¤®à¤ļ": 4886,
      "Ġà¦ħà¦²": 4887,
      "à¯ģà®¾": 4888,
      "à¨¸à¨ª": 4889,
      "à²£à²¨": 4890,
      ":-": 4891,
      "à¤ĩà¤²": 4892,
      "Ġàªªàª¦": 4893,
      "à¬Łà¬°": 4894,
      "Ġà¦Ĩà¦§": 4895,
      "Ġà¤¯à¤¤": 4896,
      "àªķàª³": 4897,
      "à¦ľà¦°": 4898,
      "à²¬à²¦": 4899,
      "à°·à°£": 4900,
      "Ġac": 4901,
      "à´¨à´¨": 4902,
      "Ġà¤¸à¤¦à¤¸": 4903,
      "Ġà²¯à²¶": 4904,
      "àª°àª¯": 4905,
      "à¦ªà§°": 4906,
      "Ġph": 4907,
      "Ġà²ķà²¤": 4908,
      "Ġrem": 4909,
      "Ġà¤īà¤ªà¤¯": 4910,
      "Ġà²¨à²Ĺà²°à²¦": 4911,
      "à¦¨à¦®à¦¨": 4912,
      "Ø³ØªØ§ÙĨ": 4913,
      "à¤Ĩà¤Ī": 4914,
      "Ġà¦¯à¦¤": 4915,
      "à¤¯à¤¶": 4916,
      "Ġà²Ĺà²°": 4917,
      "Ġà°İà°ķ": 4918,
      "Ġà²ķà²¥": 4919,
      "Ġà°ħà°ķ": 4920,
      "Ġà°²à°ķ": 4921,
      "Ġà¤¹à¤²": 4922,
      "ible": 4923,
      "Ġà¤ľà¤¹": 4924,
      "Ġà®¨à®Łà®ķ": 4925,
      "xt": 4926,
      "à°Ĺà°¤": 4927,
      "àª¡àªª": 4928,
      "Ġhelp": 4929,
      "Ġà¨ħà¨Ĺ": 4930,
      "à²£à²ķ": 4931,
      "à®¨à®ķà®°": 4932,
      "Ġ80": 4933,
      "à¤°à¤ªà¤Ł": 4934,
      "à¤µà¤°à¤£": 4935,
      "ĠàªĨàª¯": 4936,
      "Ġà¨Ĩà¨Ī": 4937,
      "Ġà¤ķà¤¶": 4938,
      "Ġàªħàª®àª¦": 4939,
      "à®µà®©à®®": 4940,
      "à®²à®©": 4941,
      "à²²à²¦à²²": 4942,
      "Ġbeing": 4943,
      "Ġàª¹àª¶": 4944,
      "Ġà¦ªà¦¶": 4945,
      "à²°à²·": 4946,
      "Ġà²¸à²£": 4947,
      "Ġà¨µà¨°à¨¤": 4948,
      "ĠØ§ÙĦÙĦÛģ": 4949,
      "Ġàª¨àª°": 4950,
      "à´¸à´¤": 4951,
      "à¤¦à¤¸": 4952,
      "ular": 4953,
      "à²Ńà²Łà²¨": 4954,
      "à¤¥à¤ķ": 4955,
      "à¨ĩà¨ķ": 4956,
      "Ġà´İà´´": 4957,
      "à²Ĺà²Ĺà²³": 4958,
      "Ġà¨īà¨¤": 4959,
      "Ġà¤ķà¤µ": 4960,
      "à®®à®®": 4961,
      "Ġeven": 4962,
      "row": 4963,
      "Ġàª¹àª°": 4964,
      "Ġwant": 4965,
      "Ġà´ªà´ŀ": 4966,
      "Ġà²Ķ": 4967,
      "à´®à´¦": 4968,
      "Ġà²®à²¨à²µ": 4969,
      "à¨ĩà¨¤": 4970,
      "à°¤à°ķ": 4971,
      "Ġadd": 4972,
      "Ġà§§à§¦": 4973,
      "âĢĻ,": 4974,
      "à²¸à²ķà²°": 4975,
      "à®·à®©": 4976,
      "Ġà¨ħà¨®à¨°": 4977,
      "Ġà¨µà¨ľ": 4978,
      "Ġà²ķà²·": 4979,
      "Ġà°ªà°Ł": 4980,
      "à¤°à¤¬": 4981,
      "Ġpres": 4982,
      "àµ»à´¡": 4983,
      "Ùĵ": 4984,
      "à¦¤à¦²": 4985,
      "Ġà´¨à´Ĺ": 4986,
      "ren": 4987,
      "à¤³à¤µ": 4988,
      "à¥ī.": 4989,
      "Ġway": 4990,
      "àµ¼à´ª": 4991,
      "Ġà®ĩà®³": 4992,
      "Ġà´ħà´±à´¸": 4993,
      "oth": 4994,
      "velop": 4995,
      "à¦§à¦¬": 4996,
      "ward": 4997,
      "Ġà¤Ĺà¤¤": 4998,
      "àª°àª¤àª¨": 4999,
      "Ġà¦¨à¦¹": 5000,
      "Ġà¤ħà¤ĸ": 5001,
      "Ġco": 5002,
      "à¨ªà¨ı": 5003,
      "ited": 5004,
      "Ġworld": 5005,
      "Ġ2020": 5006,
      "à¨Ĺà©ľ": 5007,
      "Ø±ÙĪ": 5008,
      "Ġob": 5009,
      "à³ģ-": 5010,
      "ility": 5011,
      "cess": 5012,
      "à¦¸à¦¹": 5013,
      "Ġà´Ńà´ķ": 5014,
      "à¤¾à¥ĳ": 5015,
      "ĠØªÙħ": 5016,
      "ract": 5017,
      "ft": 5018,
      "àª¸àªµ": 5019,
      "Ġà¦ļà¦ķ": 5020,
      "ÂŃ": 5021,
      "à¤½à¤ª": 5022,
      "Ġà¤ĩà¤²": 5023,
      "Ġàª²àªĸ": 5024,
      "Ġ45": 5025,
      "à®³à®ª": 5026,
      "Ġà®±": 5027,
      "à¦¹à¦®": 5028,
      "ĠBut": 5029,
      "alth": 5030,
      "Ġà¦ħà¦®": 5031,
      "à²¥à²°": 5032,
      "à°²à°ª": 5033,
      "àª§àªµ": 5034,
      "Ġà¦¹à¦¨": 5035,
      "Ġbu": 5036,
      "Ġà²Ĵà²¦à²Ĺ": 5037,
      "ased": 5038,
      "uring": 5039,
      "à´¨à´®à´¨": 5040,
      "Ġàª¨àªķ": 5041,
      "à¦¨à¦°": 5042,
      "à®İà®©": 5043,
      "Ġ70": 5044,
      "à´³à´µ": 5045,
      "à²¹à²¦": 5046,
      "à®µà®ª": 5047,
      "à«Ģ-": 5048,
      "à¨¸à¨®": 5049,
      "¥¨": 5050,
      "Ġà²¤à²ķ": 5051,
      "ĠØ³Ú©": 5052,
      "à¯į\"": 5053,
      "à¤ªà¤®": 5054,
      "Ġà¦¶à¦¹à¦°": 5055,
      "ener": 5056,
      "à¥į,": 5057,
      "Ġass": 5058,
      "à¨¼à©ģ": 5059,
      "als": 5060,
      "iness": 5061,
      "à¤¹à¤£à¤¤": 5062,
      "à¨ªà¨²": 5063,
      "Ġà´ħà´Ļ": 5064,
      "à®ķà®±": 5065,
      "iew": 5066,
      "Ġprodu": 5067,
      "Ġent": 5068,
      "Ġà¦ªà¦ŀ": 5069,
      "Ġà¤¯à¤¶": 5070,
      "à§ģâĢĻ": 5071,
      "ĠØªØ±": 5072,
      "Ġàªµàª¹": 5073,
      "à¤µà¤µ": 5074,
      "Ġà¦¬à¦²à¦¤": 5075,
      "Ġ32": 5076,
      "Ġà¤ķà¤¨": 5077,
      "à°¯à°°": 5078,
      "à´±à´®": 5079,
      "Ġà®ŀ": 5080,
      "à°¸à°®": 5081,
      "à¥ĩà¤Ĥà¥¤": 5082,
      "und": 5083,
      "à°§à°®": 5084,
      "Ġà²¦à²ķ": 5085,
      "à¦Ĩà¦ĩ": 5086,
      "Ġà´ĩà´ķ": 5087,
      "ÙĪØ¨": 5088,
      "àªĨàª°": 5089,
      "ĠÙĦÛĮÛĴ": 5090,
      "à¨Ĺà¨°à¨¸": 5091,
      "à³į-": 5092,
      "Ġàª¸àª®àªľ": 5093,
      "ĠÙĦØ¦ÛĴ": 5094,
      "à¬¼à¬¿": 5095,
      "Ġthose": 5096,
      "ĠØ³Ø§ØªÚ¾": 5097,
      "Ġà°ļà°°": 5098,
      "ĠØªÚ©": 5099,
      "ÙĤØª": 5100,
      "à±Ģ,": 5101,
      "day": 5102,
      "Ġsec": 5103,
      "à²ľà²¯": 5104,
      "Ġà®ªà®ļ": 5105,
      "à°ķà°ª": 5106,
      "Ġà¥Ńà¥": 5107,
      "Ġà¨īà¨¹à¨¨": 5108,
      "à¤µà¤§": 5109,
      "'t": 5110,
      "Ġ37": 5111,
      "Ġà®¤à®ķ": 5112,
      "à¤¨à¤¦": 5113,
      "à§Łà¦ķ": 5114,
      "Ġà²«à²²": 5115,
      "Ġà¤¸à¤®à¤°": 5116,
      "Ġback": 5117,
      "Ġdid": 5118,
      "ÙħØ¯": 5119,
      "à¤¡à¤ļ": 5120,
      "à¯ĭ,": 5121,
      "à³Ģà²Ĥ": 5122,
      "Ġà²İà²¤": 5123,
      "à¨ľà¨µ": 5124,
      "Ġà²Ĩà²¡à²³": 5125,
      "Ġà²Ĩà²²": 5126,
      "Ġown": 5127,
      "à¤¹à¤Łà¤²": 5128,
      "Ġthen": 5129,
      ")à¥¤": 5130,
      "Ùİ": 5131,
      "ys": 5132,
      "à°¾.": 5133,
      "àª¦àªµ": 5134,
      "Ġà´ŀà´Ļ": 5135,
      "pe": 5136,
      "à©¨": 5137,
      "Ġà§ªà§": 5138,
      "à´£à´¨": 5139,
      "à¨¬à¨ķ": 5140,
      "Ġà²ł": 5141,
      "à´ķà´µ": 5142,
      "àª¡àªķ": 5143,
      "à¦¹à¦¨": 5144,
      "à¦²à¦¯": 5145,
      "gan": 5146,
      "Ġà¤¦à¤²": 5147,
      "à®±à®µà®°": 5148,
      "à¤¨à¤ª": 5149,
      "à¦ķà¦¸": 5150,
      "ĠØ¬ÙĨ": 5151,
      "ics": 5152,
      "à®¤à®±": 5153,
      "à¤ķà¤¶": 5154,
      "vern": 5155,
      "==": 5156,
      "à²°à²Ĺà²³à²¨": 5157,
      "à¦°à¦ªà¦°": 5158,
      "àªĿàª¨": 5159,
      "à®µà®Ļ": 5160,
      "Ġà´īà´¯à´°": 5161,
      "à´±à´ŀ": 5162,
      "Ġright": 5163,
      "Ġà«¬": 5164,
      "àª¬àª¤": 5165,
      "ÛĮØ³": 5166,
      "Ġà°ªà°¡": 5167,
      "à¦Ĺà¦¨": 5168,
      "Ġà®ļà®ª": 5169,
      "ÂłÂł": 5170,
      "ict": 5171,
      "ience": 5172,
      "Ġà²ħà²Ĺ": 5173,
      "Ġà²¸à²¨": 5174,
      "à²ĸà²°": 5175,
      "other": 5176,
      "Ġà®µà®Ļ": 5177,
      "à´®à´²": 5178,
      "ĠAn": 5179,
      "Ġà¦ıà¦ķà¦ĩ": 5180,
      "à¬°à¬¸": 5181,
      "Ġcount": 5182,
      "Ġà®ªà®Łà®®": 5183,
      "à¨¹à¨¨": 5184,
      "à«ĩ;": 5185,
      "à¯Ī:": 5186,
      "Ú¯ÛĮ": 5187,
      "à¤ıà¤ķ": 5188,
      "à§İà¦ķ": 5189,
      "Ġà¤ħà¤Ĺà¤°": 5190,
      "à¥©": 5191,
      "Ġà®ĵà®°": 5192,
      "àªµàªķ": 5193,
      "Ġàª²àªĪ": 5194,
      "àªŃàªµ": 5195,
      "ari": 5196,
      "Ġ33": 5197,
      "à¨µà¨²": 5198,
      "à®£à®µ": 5199,
      "Ġà®µà®³": 5200,
      "àªıàª®": 5201,
      "Ġà²¨à²®à²Ĺ": 5202,
      "à¤¹à¤ķ": 5203,
      "ont": 5204,
      "',": 5205,
      "Ġà¦¬à¦²à¦Ľ": 5206,
      "à¬³à¬°": 5207,
      "à¨²à¨£": 5208,
      "Ġlife": 5209,
      "24": 5210,
      "ĠÙħÙĤ": 5211,
      "à¥ĩà¥Ĵ": 5212,
      "àŃĮ": 5213,
      "Ùĥ": 5214,
      "Ġà¤ıà¤®": 5215,
      "Ġà´Ĩà´±": 5216,
      "ĠIf": 5217,
      "Ġà¦ķà¦¨": 5218,
      "Ġà¤µà¤¨": 5219,
      "à¬ħ": 5220,
      "Ġà°ľà°¨": 5221,
      "chool": 5222,
      "à«ģ.": 5223,
      "Ġà¬ĩ": 5224,
      "à°ļà°°": 5225,
      "urn": 5226,
      "Ġàª¬àªļ": 5227,
      "aking": 5228,
      "à´°à´ļ": 5229,
      "à¦¨à¦¦": 5230,
      "à²²à²µà²°": 5231,
      "Ġà²īà²¡": 5232,
      "Ġà¤®à¤¦à¤¤": 5233,
      "Ġexper": 5234,
      "Ġà§«": 5235,
      "Ġeff": 5236,
      "ange": 5237,
      "àª¥àª³": 5238,
      "à¤Ĺà¤¦": 5239,
      "à´¦à´¨": 5240,
      "Ġà®ĩà®Łà®Ļ": 5241,
      "Ġà¦ĩà¦¸à¦²": 5242,
      "Ġnow": 5243,
      "Ġthink": 5244,
      "Ġà´¤à´Ļ": 5245,
      "ĠYou": 5246,
      "ty": 5247,
      "Ġà¨¤à¨ķ": 5248,
      "Ġà¤ļà¤ķ": 5249,
      "à¤²à¤¸": 5250,
      "à²¯à²£": 5251,
      "Ġuse": 5252,
      "Ġà´¶à´¤à´®": 5253,
      "Ġà¬Ľ": 5254,
      "à¥Īà¤Ĥ.": 5255,
      "à¨¼à©ĩ": 5256,
      "Ġàªħàª²àªĹ": 5257,
      "Ø±Øª": 5258,
      "à¦¿à¦ĥ": 5259,
      "ĠÙħØ¬": 5260,
      "à¦Łà¦°": 5261,
      "ĠÙĦÙĪ": 5262,
      "à¥§": 5263,
      "à²ªà²·": 5264,
      "Ú©ÛĮ": 5265,
      "Ġà´¨à´·": 5266,
      "®Ĳ": 5267,
      "Ġgood": 5268,
      "Ġà®ıà®¤": 5269,
      "à²¤à²¦à²²": 5270,
      "§¦à§¦": 5271,
      "Ġà®µà®°à®µ": 5272,
      "Ġà²¨à²µ": 5273,
      "Ġà®ķà®Łà®²": 5274,
      "Ġàª®àª§": 5275,
      "ĠàªĨàªĹàª³": 5276,
      "à¨°à¨²": 5277,
      "à²²à²¯à²¦": 5278,
      "à±ĭ,": 5279,
      "Ġà¤ªà¤Ł": 5280,
      "à´¹à´ļà´°": 5281,
      "à¦¼à§ģ": 5282,
      "ĠAl": 5283,
      "anc": 5284,
      "à®´à®ķà®¤": 5285,
      "àª¬àª²": 5286,
      "à®´à®°": 5287,
      "Ġdiffere": 5288,
      "à´¦à´®": 5289,
      "Ġà¦Ī": 5290,
      "ĠàªĹàª°": 5291,
      "àªľàª®": 5292,
      "Ġà¦§à§°": 5293,
      "Ġà²ĩà²³": 5294,
      "à²°à²µà²°": 5295,
      "Ġà´ħà´¬": 5296,
      "à¤ļà¤¤": 5297,
      "Ø´ÙĨ": 5298,
      "Ġà²ĩà²¡": 5299,
      "à®Ĩà®®": 5300,
      "à¦®à¦¯": 5301,
      "led": 5302,
      "à®Ĳ": 5303,
      "àªŁàª°àª¨": 5304,
      "Ġà®ħà®´à®ķ": 5305,
      "à°Ĩà°°": 5306,
      "Ġà¤ħà¤¸à¤£": 5307,
      "Ġàª²àªķ": 5308,
      "à«Ĥ.": 5309,
      "à©Īà©±": 5310,
      "à¤¥à¤¨": 5311,
      "à¬®à¬°": 5312,
      "Ġà¤¸à¤«": 5313,
      "à¤¤à¤¹": 5314,
      "Ġàª°àª®": 5315,
      "à®Łà®µà®°": 5316,
      "Ġà©ŀ": 5317,
      "à¤°à¤Ĺ": 5318,
      "à²¨à²®": 5319,
      "à¬®à¬¨": 5320,
      "à´¨à´±": 5321,
      "à²§à²¤": 5322,
      "Ġàªªàªķ": 5323,
      "Ġà°®à°§": 5324,
      "ĠØ¬Ø¨": 5325,
      "à¤¯à¤£": 5326,
      "àª®àªĹ": 5327,
      "à²İà²²": 5328,
      "ĠàªĨàª¦": 5329,
      "àª®àªļ": 5330,
      "à¤ĩà¤Ł": 5331,
      "Ġà´ķà´£à´ķ": 5332,
      "à®©à®µà®°": 5333,
      "Ġàª®àª¦àª¦": 5334,
      "à¤Ĩà¤°": 5335,
      "à¦łà¦ķ": 5336,
      "à´°à´ª": 5337,
      "Ġàªľàª¯": 5338,
      "Ġà¬®à¬¨": 5339,
      "ĠÚ©ÛģØ§": 5340,
      "àµ½à´ª": 5341,
      "Ġà²¸à²µ": 5342,
      "Ġperson": 5343,
      "à´®à´±": 5344,
      "à±Ģ.": 5345,
      "Ġà¤Ńà¤ķ": 5346,
      "Ġà¦®à¦°": 5347,
      "âĢĭâĢĭ": 5348,
      "Ġà¥§à¥«": 5349,
      "ublic": 5350,
      "à´·à´Ļ": 5351,
      "àµ¼à´¦": 5352,
      "Ø§Øµ": 5353,
      "Ġà´¸à´¤": 5354,
      "Ġà²ħà²µà²§": 5355,
      "à¤¾?": 5356,
      "Ġà¬ħà¬Ń": 5357,
      "Ø©": 5358,
      "Ġà®ĩà®²à®ķ": 5359,
      "àµ¼à´¡": 5360,
      "Ġgreat": 5361,
      "arch": 5362,
      "Ġà´¹à´°": 5363,
      "à§įâĢĮ": 5364,
      "45": 5365,
      "à¤¸à¤ª": 5366,
      "Ġà¤ľà¤¨à¤¤": 5367,
      "à´¨à´¸": 5368,
      "à¨ħà¨ķà¨¤": 5369,
      "à¬ľà¬¨": 5370,
      "Ġàªķàª°àª¨": 5371,
      "Ġà®ªà®©": 5372,
      "à¤·à¤®": 5373,
      "à¤¯à¤ķà¤°": 5374,
      "Ġà¤°à¤¹à¤¤": 5375,
      "à°²à°µ": 5376,
      "à²¤à²Ĺ": 5377,
      "Ùı": 5378,
      "ivers": 5379,
      "Ġlook": 5380,
      "Ġà°¨à°®": 5381,
      "Ġ--": 5382,
      "Ġà¦ĵà¦ªà¦°": 5383,
      "à¦°à§Ł": 5384,
      "à¥¨": 5385,
      "à¤ĸà¤¤": 5386,
      "Ġàª¸àªŃ": 5387,
      "à¨ħà¨¨": 5388,
      "à¦ıà¦®": 5389,
      "à´¨à´ķ": 5390,
      "Ġà¨¦à¨²": 5391,
      "à¨¡à¨°": 5392,
      "à®£à®Ļ": 5393,
      "àªĹàª£": 5394,
      "ØªØ±": 5395,
      "Ġà§ª": 5396,
      "Ġà¤ķà¤§": 5397,
      "Ġà¤¸à¤Ĺà¤³": 5398,
      "à¤¸à¤¸": 5399,
      "à¦¸à¦¦": 5400,
      "Ġà¨ļà¨²": 5401,
      "à´´à´¯": 5402,
      "à³įâĢĮ,": 5403,
      "Ġagain": 5404,
      "Ġàª¬àªľ": 5405,
      "Ġà¨Ķ": 5406,
      "Ġà²¸à²ķ": 5407,
      "à¨¸à¨ķ": 5408,
      "à³Įà²Ĥ": 5409,
      "Ġà°¸à°¹": 5410,
      "Ġà²ķà²ª": 5411,
      "Ġfin": 5412,
      "Ġà´İà´Ļ": 5413,
      "à²¨à²Ĺà²³à²²": 5414,
      "80": 5415,
      "Ġà²¨à²°": 5416,
      "à²¦à²°à²²": 5417,
      "à±Ĥ.": 5418,
      "à°¯à°¸": 5419,
      "Ġà®Ĩà®³": 5420,
      "Ġà¤¹à¤¸": 5421,
      "à°ķà°¨": 5422,
      "Ġà¤ĩà¤¤à¤ķ": 5423,
      "Ġà°īà°¤": 5424,
      "à´³à´µà´°": 5425,
      "23": 5426,
      "à¦ĩà§Ł": 5427,
      "Ø§Ø±ÛĴ": 5428,
      "Ø¯Ø±": 5429,
      "à¬Ĺà¬°": 5430,
      "Ġmuch": 5431,
      "Ġ500": 5432,
      "à¤ķà¤µ": 5433,
      "à´°à´µà´§": 5434,
      "à´±à´ļ": 5435,
      "ank": 5436,
      "Ø±ØŃ": 5437,
      "à¨ĸà¨¦": 5438,
      "à¤¼à¤¿": 5439,
      "à¦ķà¦ķ": 5440,
      "ness": 5441,
      "à¤Ĺà¤¸": 5442,
      "àª¯àªµàª¸": 5443,
      "its": 5444,
      "Ġ36": 5445,
      "Ġlong": 5446,
      "ÙħØ§": 5447,
      "ism": 5448,
      "à´¹à´°": 5449,
      "ient": 5450,
      "à²Ĺà²ķ": 5451,
      "à²Ĺà²Ł": 5452,
      "Ġdisc": 5453,
      "à¦°à¦ľ": 5454,
      "Ġà¥¯": 5455,
      "ven": 5456,
      "à¤¹à¤²": 5457,
      "Ġà¤ĩà¤¸à¤¸": 5458,
      "à¦·à¦¦": 5459,
      "Ġà¦¹à¦ĩà¦¬": 5460,
      "àªµàª®": 5461,
      "à²°à²¶à²¸": 5462,
      "Ġà®µà®°à®²": 5463,
      "§¨à§": 5464,
      "ices": 5465,
      "Ġà¦¨à¦¬": 5466,
      "à¨®à¨¦": 5467,
      "uth": 5468,
      "Ġend": 5469,
      "omet": 5470,
      "Ġàª®àª°": 5471,
      "Ġà²°à²µ": 5472,
      "Ġmade": 5473,
      "Ġà¤¸à¤²": 5474,
      "à¨¬à¨¦": 5475,
      "Ġà¤Ńà¤Ĺà¤µ": 5476,
      "à°¡à°¨": 5477,
      "ĠØ¨Ø¹Ø¯": 5478,
      "ĠØªÚ¾ÛĮ": 5479,
      "Ġàªļàª°": 5480,
      "à´±àµ¼": 5481,
      "àª¨àªĹ": 5482,
      "Ġà¦Ńà¦°": 5483,
      "à¤ľà¤µ": 5484,
      "à¦Ĺà§°": 5485,
      "à¨Ĩà¨Ī": 5486,
      "à´¯àµ¼": 5487,
      "ĠàªĿàª¡àªª": 5488,
      "Ġbus": 5489,
      "Ġresp": 5490,
      "à«ģ,": 5491,
      "à¦ĩà¦Ľ": 5492,
      "à¬¾à¥¤": 5493,
      "Ġà´ĺ": 5494,
      "Ġ#": 5495,
      "¥©à¥": 5496,
      "àµĨ,": 5497,
      "ĠØ¯ÛĮØ§": 5498,
      "Ġà¦§à¦¨": 5499,
      "aj": 5500,
      "Ġ196": 5501,
      "à²£à²®": 5502,
      "à´ĺà´Ł": 5503,
      "Ġà®ªà®¤à®µ": 5504,
      "à¨ļà¨¨": 5505,
      "à®°à®¤à®®à®°": 5506,
      "Ø§Ø´": 5507,
      "à°¾à°ģ": 5508,
      "Ġ>": 5509,
      "Ġà¥§à¥¨": 5510,
      "Ġà°ħà°¸": 5511,
      "Ġà¨¬à¨°": 5512,
      "à²ķà²¸": 5513,
      "Ġ2011": 5514,
      "Ġà®İà®µ": 5515,
      "Ġà¦īà¦ªà¦ľ": 5516,
      "à´ªà´®": 5517,
      "à¨¸à¨¨": 5518,
      "àªªàª®": 5519,
      "à¦®à¦ª": 5520,
      "Ġà¤«à¤°": 5521,
      "à©©": 5522,
      "Ġà²ľà²®": 5523,
      "Ġdevelop": 5524,
      "Ġà¨Ĩà¨Ĺ": 5525,
      "Ġà¥¨à¥¦à¥§à¥": 5526,
      "à¯įâĢĻ": 5527,
      "ĠPro": 5528,
      "à¨¸à¨¥": 5529,
      "à®ªà®£": 5530,
      "à´¤à´ķà´°": 5531,
      "stem": 5532,
      "à´ķàµ½": 5533,
      "à²·à²¯": 5534,
      "ures": 5535,
      "ĠÙ¾Ø§Ú©": 5536,
      "à¦¨à¦ª": 5537,
      "ower": 5538,
      "ble": 5539,
      "à²¡à²ķ": 5540,
      "Ġtrans": 5541,
      "à¤ľà¤®": 5542,
      "Ġà´Ĩà´¤": 5543,
      "Ġà¤¦à¤°à¤®": 5544,
      "à¨®à¨¨": 5545,
      "cept": 5546,
      "Ġà¤«à¤²": 5547,
      "Ġà¦¨à¦®": 5548,
      "Ġread": 5549,
      "Ġà¤Ĺà¤°à¤ľ": 5550,
      "ĠØ¨Úĳ": 5551,
      "à´°à´£à´®": 5552,
      "Ġà®ĩà®°à®µ": 5553,
      "ĠØ¬Ø§Øª": 5554,
      "à´¡à´²": 5555,
      "ĠDe": 5556,
      "self": 5557,
      "àª¸àªª": 5558,
      "à´²à´°": 5559,
      "Ġà²Ĩà²¤à²¨": 5560,
      "ĠâĢĭ": 5561,
      "Ġplay": 5562,
      "à²¶à²µà²¨": 5563,
      "Ġàªªàª¶": 5564,
      "ĠØ¹Ùħ": 5565,
      "ting": 5566,
      "Ġà¤ĩà¤ļ": 5567,
      "Ġà¤ĩà¤®": 5568,
      "Ġà®¤à®µà®±": 5569,
      "à¨²à¨µ": 5570,
      "à°ķà°Ł": 5571,
      "ince": 5572,
      "Ġà²°à²²": 5573,
      "àª¡àª¤": 5574,
      "ĠØ³ÙĪ": 5575,
      "à²Ĺà²®": 5576,
      "Ġà°İà°²": 5577,
      "à°°à°²": 5578,
      "à¥©à¥": 5579,
      "à¬¬à¬¸": 5580,
      "ĠØ¨Ú¾": 5581,
      "à¦ľà¦¤": 5582,
      "à¦ļà¦ķ": 5583,
      "à±Ģà°Ĥ": 5584,
      "Ġà®ªà®²à®°": 5585,
      "Ġà¤¸à¤®à¤Ŀ": 5586,
      "ĠÙħØª": 5587,
      "à°·à°²": 5588,
      "à´Łàµ¼à´¨": 5589,
      "Ġear": 5590,
      "ĠàªªàªĹàª²": 5591,
      "Ġà¤ľà¤µ": 5592,
      "ĠThere": 5593,
      "à¦ľà¦¸": 5594,
      "à¨Ĩà¨£": 5595,
      "Ġà´Ĩà´¸": 5596,
      "ĠàªĨàªķ": 5597,
      "Ġform": 5598,
      "àª¿.": 5599,
      "Ġà¦¤à¦¤": 5600,
      "ĠØŃÚ©": 5601,
      "à¦¯à¦®à¦¨": 5602,
      "à´¥à´¯": 5603,
      "Ġà¤¨à¤¦": 5604,
      "Ġà²¸à²®à²¯à²¦à²²": 5605,
      "Ġà¦ķà¦¯": 5606,
      "Ø¨ÛĮ": 5607,
      "Ġà²¯à²¶à²¸": 5608,
      "à²¿)": 5609,
      "Ġà²®à²£": 5610,
      "Ġà¨ªà©ľ": 5611,
      "à´¨à´ª": 5612,
      "ĠÚ©ÙĪØ¦ÛĮ": 5613,
      "à²¯à²Ĺ": 5614,
      "à´£à´¯": 5615,
      "Ġà°ħà°¡": 5616,
      "à¥Ģ)": 5617,
      "à®¤à®ļ": 5618,
      "àªªàªķ": 5619,
      "à®µà®©à®¤": 5620,
      "get": 5621,
      "ĠàªµàªĹ": 5622,
      "à¤ĺà¤Łà¤¨": 5623,
      "ĠX": 5624,
      "Ġà¥®à¥": 5625,
      "à´¤à´°à´µ": 5626,
      "à¦®à¦§": 5627,
      "Ġà°Ĳ": 5628,
      "ĠÚ©Ú¾": 5629,
      "Ġà²²à²Ń": 5630,
      "Ġà°Ĩà°¸": 5631,
      "à®©à®ª": 5632,
      "Ġdon": 5633,
      "àª¥àª®": 5634,
      "Ġcall": 5635,
      "à¤¸à¤±": 5636,
      "Ġà«¨à«¦": 5637,
      "ĠØ³Ø¨": 5638,
      "à¤²à¤²": 5639,
      "Ġà²®à²¤à²¦": 5640,
      "à¨¤à¨µ": 5641,
      "à¬ĺ": 5642,
      "à¨¸à¨µ": 5643,
      "Ġà¤¨à¤¸": 5644,
      "Ġàªķàª¨": 5645,
      "Ġdoes": 5646,
      "àªļàªµ": 5647,
      "à´¯à´®à´Ļ": 5648,
      "Ġinst": 5649,
      "hes": 5650,
      "àª¥àª¨": 5651,
      "ÙģØ±": 5652,
      "à³ģâĢĻ": 5653,
      "Ġ90": 5654,
      "Ġà°¤à°ª": 5655,
      "à¦¯à¦ĩ": 5656,
      "à¬¿,": 5657,
      "àª¨àª°": 5658,
      "à²Ĵ": 5659,
      "Ġà²ĩà²Ł": 5660,
      "ives": 5661,
      "Ġà²Ĩà²¡": 5662,
      "à²®à²Ĺà²³": 5663,
      "Ġà²İà²°à²¡à²¨": 5664,
      "ever": 5665,
      "àªĩàª²": 5666,
      "à¤¾'": 5667,
      "Ġà¤¤à¤¨": 5668,
      "Ġmon": 5669,
      "à¦¯à¦¦": 5670,
      "Ġàªµàª³": 5671,
      "à³ĩ,": 5672,
      "à¤£à¤¨": 5673,
      "à®¯à®¨": 5674,
      "à®µà®®à®©": 5675,
      "à¨¹à¨¤": 5676,
      "Ġà¤·": 5677,
      "Ġà²ĺà²Łà²ķ": 5678,
      "ution": 5679,
      "Ġsur": 5680,
      "ĠFor": 5681,
      "à¦ļà¦°": 5682,
      "ĠAr": 5683,
      "Ġà¦ĩà¦ī": 5684,
      "ĠÛģÙĪØ¦ÛĴ": 5685,
      "Ġà¤ħà¤µà¤¸": 5686,
      "Ġà¤ļà¤¤": 5687,
      "à´¸à´®à´¯": 5688,
      "ĠÙħØ´": 5689,
      "Ġàª¢": 5690,
      "Ġà¨Ĳà¨¸": 5691,
      "ween": 5692,
      "à®µà®³": 5693,
      "à¤ĺà¤°": 5694,
      "Ġà¤®à¤¸": 5695,
      "à¨¾.": 5696,
      "Ġà¦īà§İà¦¸": 5697,
      "à°¬à°°": 5698,
      "Ġke": 5699,
      "àµĭ.": 5700,
      "Ġà°ħà°¤à°¨": 5701,
      "à¨Ĩà¨²": 5702,
      "à§¨à§": 5703,
      "à¦²à¦Ĺ": 5704,
      "Ġspec": 5705,
      "Ġà²¹à²ķ": 5706,
      "Ġà´ķà´¤": 5707,
      "à¤¦à¤¤": 5708,
      "up": 5709,
      "ues": 5710,
      "Ġloc": 5711,
      "à²µà²ļ": 5712,
      "à®µà®³à®µ": 5713,
      "Ġà¦Ĺà¦°": 5714,
      "âĢľ": 5715,
      "ĠÚ©Ùħ": 5716,
      "Ġà¤¶à¤¨": 5717,
      "Ġbefore": 5718,
      "Ġà¦ıà¦ĸà¦¨à¦ĵ": 5719,
      "28": 5720,
      "à¦ķà¦¨": 5721,
      "Ġà´ľà´¨à´Ļ": 5722,
      "Ġà¦ħà¦¶": 5723,
      "Ġà¦ļà¦°": 5724,
      "à¨°à¨£": 5725,
      "Ġà´İà´£": 5726,
      "àª°àª«": 5727,
      "à¨¹à©ľ": 5728,
      "Ġmed": 5729,
      "Ġ2013": 5730,
      "à¤ķà¤ª": 5731,
      "à¤ľà¤Ĺ": 5732,
      "Ġà´İà´ķ": 5733,
      "Ġà®īà®ª": 5734,
      "ork": 5735,
      "Ġà²¸à²²à²¹": 5736,
      "à¦¦à§°": 5737,
      "Ġchild": 5738,
      "à°¥à°®": 5739,
      "ĠÚ¯Ø§": 5740,
      "Ġà¨Łà¨°": 5741,
      "Ġsm": 5742,
      "Ġà¥§à¥§": 5743,
      "Ġà´ªà´¨": 5744,
      "oci": 5745,
      "Ġà§¬": 5746,
      "à¤¬à¤¹": 5747,
      "à°Łà°®": 5748,
      "Ġà°ĩà°ķ": 5749,
      "³§à³": 5750,
      "à§ģà¦ĥ": 5751,
      "Ġà¦ĵà¦ł": 5752,
      "à¨Ĩà¨°à¨¥": 5753,
      "à¤¿à¥ĳ": 5754,
      "Ġà®°à®¯": 5755,
      "àµį:": 5756,
      "à²°à²Ĺà²³à²²": 5757,
      "Ġà¦Ĩà¦ļ": 5758,
      "à´³à´ķ": 5759,
      "Ġà¤²à¤¡": 5760,
      "ved": 5761,
      "Ġà®İà®°": 5762,
      "cy": 5763,
      "Ġà²¨à²¦": 5764,
      "à¬¾,": 5765,
      "à°ªà°®": 5766,
      "Ġà¤Ńà¤µà¤¤": 5767,
      "ĠØ¹ÙĦ": 5768,
      "à¦ļà¦¯": 5769,
      "Ġtake": 5770,
      "oun": 5771,
      "land": 5772,
      "Ġmem": 5773,
      "Ġà®ĩà®´": 5774,
      "ÙĪØ±ÛĮ": 5775,
      "Ġà®Ĩà®¤à®°à®µ": 5776,
      "Ġfol": 5777,
      "à¤¶à¤®": 5778,
      "à¦¥à¦ķ": 5779,
      "ÙĤÛĮ": 5780,
      "Ġins": 5781,
      "à¨¤à¨ķ": 5782,
      "à¤¥à¤²": 5783,
      "à´²à´ķà´³": 5784,
      "Ġnum": 5785,
      "à®¤à®Ł": 5786,
      "Ġà¨¦à¨°à¨ľ": 5787,
      "Ġà¨ħà¨¦": 5788,
      "ĠSh": 5789,
      "à¦·à¦®à¦¤": 5790,
      "à¯ĩ!": 5791,
      "Ġà¦ĩà¦īà¦¨": 5792,
      "Ġlead": 5793,
      "áĢ": 5794,
      "Ġ34": 5795,
      "Ġàªīàª²": 5796,
      "Ġstate": 5797,
      "26": 5798,
      "à¤Ľà¤¤": 5799,
      "35": 5800,
      "Ġà´¨à´¨": 5801,
      "à²ĺà²Łà²¨": 5802,
      "ww": 5803,
      "Ġhigh": 5804,
      "air": 5805,
      "¯Į": 5806,
      "Ġà¨¶à¨¹": 5807,
      "à¯Į": 5808,
      "à°ªà°²": 5809,
      "ĠØ¯ÙĨ": 5810,
      "Ġà°¨à°¨": 5811,
      "Ġà¤ľà¤£": 5812,
      "à¤°à¤«": 5813,
      "à²ªà²µ": 5814,
      "Ġbetween": 5815,
      "àª°àªª": 5816,
      "Ġà¦¨à¦¦": 5817,
      "Ġà®ķà®£à®ķ": 5818,
      "àª·àª®": 5819,
      "27": 5820,
      "à´İà´²": 5821,
      "Ġà¦Ĩà¦¨à¦¨": 5822,
      "à¦¯à¦°": 5823,
      "Ġart": 5824,
      "ÛģØ±": 5825,
      "à©Ģ-": 5826,
      "Ġà®īà®ļ": 5827,
      "à®±à®Ļ": 5828,
      "à°¯à°¡": 5829,
      "Ġshow": 5830,
      "à¨¹à¨®à¨£": 5831,
      "Ġà¤ĩà¤¸à¤®": 5832,
      "à§ĩâĢĶ": 5833,
      "man": 5834,
      "à®ķà®³à®¤": 5835,
      "Ġà´ıà´ķ": 5836,
      "Ġà¦Ĩà§Ł": 5837,
      "àªĩàªŁ": 5838,
      "à¦²à¦®": 5839,
      "à²µà²µà²¨": 5840,
      "Ġref": 5841,
      "à¬ĩà¬¬": 5842,
      "Ġà¦ĭ": 5843,
      "à¬·à¬°": 5844,
      "Ġà®®à®ķà®©": 5845,
      "Ġà¶": 5846,
      "Ġà´ķà´¯à´±": 5847,
      "ÛĮÚ©ÙĨ": 5848,
      "Ġset": 5849,
      "Ġinter": 5850,
      "Ġà´ħà´ªà´ķ": 5851,
      "à¦®à§°": 5852,
      "Ġday": 5853,
      "ather": 5854,
      "à®İà®²": 5855,
      "¥ª": 5856,
      "à¤²à¤£": 5857,
      "Ġàªıàªª": 5858,
      "Ġà®ħà®µà®±": 5859,
      "à¤µà¤ķà¤°": 5860,
      "àµ¼à´ľ": 5861,
      "à²²à²¤": 5862,
      "´Ľ": 5863,
      "Ġstart": 5864,
      "à©Ľà¨°": 5865,
      "à´Ľ": 5866,
      "Ġà¤ľà¤µà¤³": 5867,
      "Ġprog": 5868,
      "Ġed": 5869,
      "ĠØ§Ø¹": 5870,
      "Ġà¦·": 5871,
      "±Û": 5872,
      "Ġà¤ıà¤¨": 5873,
      "Ġà´ĵà´Ł": 5874,
      "à´·à´£à´¤": 5875,
      "à¤°à¤¥": 5876,
      "à´³à´¯": 5877,
      "à¤Ľà¤²": 5878,
      "àªµàª¡": 5879,
      "ĠØ¶": 5880,
      "ss": 5881,
      "à°µà°¸": 5882,
      "à²°à²£à²ķ": 5883,
      "Ġà¦®à¦Ļ": 5884,
      "ually": 5885,
      "meric": 5886,
      "à´ĸà´²à´¯": 5887,
      "à¤¯à¤Ń": 5888,
      "Ġfamil": 5889,
      "Ġcour": 5890,
      "Ġà²°à²ļ": 5891,
      "Ġgu": 5892,
      "Ġdef": 5893,
      "ĠÚ©Ø±ØªÛĴ": 5894,
      "à¦¥à¦²": 5895,
      "à´µà´®": 5896,
      "àµ¼à´¶": 5897,
      "ars": 5898,
      "à°ªà°ķ": 5899,
      "Ġsame": 5900,
      "Ġà«Ń": 5901,
      "Ġà®ıà®°": 5902,
      "ix": 5903,
      "ving": 5904,
      "Ġà²Ńà²µ": 5905,
      "formation": 5906,
      "à´Ĺà´£": 5907,
      "à®µà®°à®¤": 5908,
      "Ġà°¦à°°": 5909,
      "à²¯à²¦à²°": 5910,
      "Ġà´īà´±à´ª": 5911,
      "Ġà¦¤à¦¦à¦¨": 5912,
      "àª£àª¯": 5913,
      "ĠÚ©Ø³ÛĮ": 5914,
      "Ġà¨īà¨¦": 5915,
      "Ġà®¨à®ķ": 5916,
      "Ġàª¨àªľ": 5917,
      "Ú¾ÛĴ": 5918,
      "Ġà¦¸à¦ª": 5919,
      "à®¯à®ļ": 5920,
      "Ġà¨¦à¨°": 5921,
      "Ġà«§à«¦": 5922,
      "Ġà¤Ĩà¤¢": 5923,
      "à°°à°§": 5924,
      "Ø§ÙĦÛĮ": 5925,
      "à´¯à´ķà´¨": 5926,
      "à¤¤à¤¯": 5927,
      "Ġà¤ħà¤¥à¤µ": 5928,
      "Ġà¦°à¦¯": 5929,
      "ax": 5930,
      "à¦°à¦Ĺ": 5931,
      "Ġà²ħà²¦à²°à²²": 5932,
      "ĠØ§Ø³Øª": 5933,
      "az": 5934,
      "Ø¯Ø§": 5935,
      "Ġfind": 5936,
      "à®ªà®Łà®µ": 5937,
      "à¦¤à¦¦": 5938,
      "Ø¬Ûģ": 5939,
      "à´ķà´°à´®": 5940,
      "à¦¹à§°": 5941,
      "Ġà²ħà²ªà²°": 5942,
      "Ġà¤ĩà¤¸à¤²": 5943,
      "Ġà¨¸à¨ª": 5944,
      "à¦Ĩà¦®": 5945,
      "à¨°à¨«": 5946,
      "à¤Ĺà¤ª": 5947,
      "Ġà°¤à°²": 5948,
      "Ġà²ķà²µ": 5949,
      "ĠØ®ÙĪ": 5950,
      "ock": 5951,
      "©à³": 5952,
      "àªĨàª¤": 5953,
      "ĠØ§Ù¾ÙĨÛĮ": 5954,
      "Ġà²¸à²®à²°": 5955,
      "à²Łà²£": 5956,
      "Ġà®¨à®£": 5957,
      "à¦·à¦®": 5958,
      "Ġchar": 5959,
      "à¦ľà¦¨à¦ķ": 5960,
      "à°¶à°®": 5961,
      "Ġreal": 5962,
      "imes": 5963,
      "ner": 5964,
      "):": 5965,
      "à´ķàµ»": 5966,
      "à¤¨à¤¸à¤Ń": 5967,
      "à¤°à¤ķà¤²": 5968,
      "Ġmark": 5969,
      "Ġà®Ĩà®ª": 5970,
      "à¤Łà¤ļ": 5971,
      "à®¿:": 5972,
      "à¦§à¦°": 5973,
      "Ġcommun": 5974,
      "200": 5975,
      "Ġ38": 5976,
      "Ġà²ľà²²": 5977,
      "ason": 5978,
      "Ġà²¤à²¤": 5979,
      "à¦®à¦Ĺ": 5980,
      "Ġà²īà²²": 5981,
      "Ġà´¤à´°": 5982,
      "Ġà®Ĩà®µ": 5983,
      "à²¹à²¸": 5984,
      "Ġthough": 5985,
      "uc": 5986,
      "à¤¶à¤µ": 5987,
      "ĠØ¬Ø§ÙĨ": 5988,
      "à®©à®Ļ": 5989,
      "Ġ2012": 5990,
      "Ġbusiness": 5991,
      "ai": 5992,
      "Ø®Øª": 5993,
      "Ġà¦īà§İ": 5994,
      "à¥Įà¤Ĥ": 5995,
      "ĠÙĨØ¸": 5996,
      "à²Ĺà²µà²¨": 5997,
      "à¤¡à¤¨": 5998,
      "àªĸàª²": 5999,
      "irect": 6000,
      "à´ļà´ª": 6001,
      "Ġà²¸à²¹à²ķ": 6002,
      "à¦¯à¦ª": 6003,
      "àªķàª°àª£": 6004,
      "ÛĮÙĦ": 6005,
      "Ġà¨ķà¨¦": 6006,
      "Ġà²®à²¹à²¤": 6007,
      "roup": 6008,
      "Ġà´µà´¸": 6009,
      "à¤°à¤®à¤§": 6010,
      "Ġà¦¸à¦®à¦°": 6011,
      "à²§à²¦": 6012,
      "Ġ195": 6013,
      "à¤¯à¤µà¤¹": 6014,
      "Ġà®Ĵà®´": 6015,
      "Ġ..": 6016,
      "Ġà®İà®¸": 6017,
      "Ġà¤ĸà¤¡": 6018,
      "Ġàªħàª¸àª°": 6019,
      "Ġà¨Ī": 6020,
      "Ġà«®": 6021,
      "Ġà®¤à®³": 6022,
      "àµ¼à´£": 6023,
      "®ĥà®ª": 6024,
      "à®ĥà®ª": 6025,
      "à²°à²¬à²¹": 6026,
      "à²ªà²²": 6027,
      "¦à§": 6028,
      "__": 6029,
      "ĠØ±Ú©Ú¾": 6030,
      "à¨Ĺà¨®": 6031,
      "à©Įà¨Ĥ": 6032,
      "à¦Ĺà¦¬": 6033,
      "Ġà®İà®©à®¤": 6034,
      "à°¡à°µ": 6035,
      "à¨Ľà¨²": 6036,
      "à²²à²µà²¨": 6037,
      "à´°àµ»": 6038,
      "Ġà²Ľ": 6039,
      "Ġà²·": 6040,
      "à¤²à¤ķà¤°": 6041,
      "Ġà´Ĩà´Ĺ": 6042,
      "Ġà¬¸à¬°à¬ķ": 6043,
      "Ġà¨Ĩà¨®": 6044,
      "àª°àª²": 6045,
      "ĠØ¨ÙĦ": 6046,
      "ĠØ¨Ø§Øª": 6047,
      "alk": 6048,
      "Ġà®®à®ķà®³": 6049,
      "Ġàªľàª¶": 6050,
      "Ġà®Ĵà®Ł": 6051,
      "à¤¢à¤£": 6052,
      "à¦¼à¦¾,": 6053,
      "Ġsystem": 6054,
      "Ġà¨¸à¨®à¨Ŀ": 6055,
      "à´±à´£": 6056,
      "ines": 6057,
      "à©ª": 6058,
      "ĠThey": 6059,
      "Ġà°§à°°": 6060,
      "Ġà´®à´²": 6061,
      "à¨°à¨¹": 6062,
      "Ġà¦¸à§°": 6063,
      "à´ķà´Ł": 6064,
      "Ġà²Ĺà²¡": 6065,
      "Ġà²¬à²¯à²¸": 6066,
      "à´¤à´µ": 6067,
      "à°®à°ķ": 6068,
      "Ġà¤ķà¤¹à¤¤": 6069,
      "Ġà´Ĵà´Ł": 6070,
      "Ġàª²àªĪàª¨": 6071,
      "ins": 6072,
      "à®ļà®¨": 6073,
      "Ġcare": 6074,
      "à§Įà¦ģ": 6075,
      "à²¿âĢĻ": 6076,
      "Ġop": 6077,
      "Ġbel": 6078,
      "29": 6079,
      "Ġà´¸à´®à´°": 6080,
      "Ġrequ": 6081,
      "à¨¤à¨²": 6082,
      "der": 6083,
      "Ġfl": 6084,
      "à¦īà¦Ł": 6085,
      "Ġà¦ħà¦Ļ": 6086,
      "àª¨àª²": 6087,
      "à¤¹à¤°à¤£": 6088,
      "Ġdifferent": 6089,
      "Ġ48": 6090,
      "Ġà²¥": 6091,
      "Ġà¦¦à¦¶": 6092,
      "à¤¬à¤¸": 6093,
      "àªłàªķ": 6094,
      "à¤ļà¤µ": 6095,
      "Ġà¤¤à¤®": 6096,
      "à²Ĺà²µà²¹": 6097,
      "Ġà¤ħà¤«": 6098,
      "à¦°à¦®à¦£": 6099,
      "Ġà²ľà²¯": 6100,
      "Ġà¦ĩà¦ļ": 6101,
      "Ġused": 6102,
      "à¤Ĺà¤ļ": 6103,
      "Ġà´¤à´²": 6104,
      "à®ľà®©": 6105,
      "ĠØ§ÙĨÛģ": 6106,
      "à¨ķà¨®": 6107,
      "àª¤àªµ": 6108,
      "Ġà²¹à²¬": 6109,
      "ĠÚ©Ø§Ùħ": 6110,
      "¯à³": 6111,
      "à¤°à¤ªà¤¤": 6112,
      "Ġà±": 6113,
      "à®ļà®Ļ": 6114,
      "Ġà²ħà²¶": 6115,
      "à§Ģ-": 6116,
      "Ġfact": 6117,
      "chn": 6118,
      "Ġà²µà²¯à²¸": 6119,
      "àª£àª®": 6120,
      "àª·àªķ": 6121,
      "Ġà®īà®±à®µ": 6122,
      "Ġà®®à®©à®¤": 6123,
      "à°°à°¶": 6124,
      "à¤ĥ,": 6125,
      "à®ªà®Ļ": 6126,
      "à¬ªà¬¤": 6127,
      "à´·à´ª": 6128,
      "à¦§à¦ķ": 6129,
      "Ġà´¤à´³": 6130,
      "Ġimport": 6131,
      "Ġà®ĩà®ķ": 6132,
      "à²ªà²£": 6133,
      "Ġà¤µà¤ľ": 6134,
      "à¦Ľà¦¤": 6135,
      "à§ģ-": 6136,
      "Ġbr": 6137,
      "Ġà¤ªà¤¢": 6138,
      "vernment": 6139,
      "ĠàŃ©": 6140,
      "à©Ļ": 6141,
      "Ġà¦ļà¦¨": 6142,
      "ĠAmeric": 6143,
      "àª¶àªķ": 6144,
      "Ġà¤ķà¤¹à¤¨": 6145,
      "à°İà°¸": 6146,
      "ata": 6147,
      "arm": 6148,
      "Ġà¦¹à¦ĵà¦¯": 6149,
      "Ġà´ĩà´Łà´ª": 6150,
      "à³įâĢĮ.": 6151,
      "Ġàª¸àª®àª¸": 6152,
      "à¦£à¦¤": 6153,
      "Ġà¨Ĩà¨īà¨£": 6154,
      "à®¨à®°": 6155,
      "à¨ľà¨ª": 6156,
      "Ġà²ĩà²°à²²": 6157,
      "à´£à´±": 6158,
      "àª¶àª¨àª¨": 6159,
      "Ġà°ªà°²": 6160,
      "àµĭà´Ĥ": 6161,
      "Ġà²Ĳà²¦": 6162,
      "à¦ľà§°": 6163,
      "à¥Ĥà¤ģ": 6164,
      "à¦§à¦¤": 6165,
      "ĠÛģÙĪØ§": 6166,
      "Ġà¤ľà¤¯": 6167,
      "Ġlast": 6168,
      "way": 6169,
      "à¨¤à¨¨": 6170,
      "à¯ģ?": 6171,
      "Ø³Ø±": 6172,
      "Ġà´ħà´ļ": 6173,
      "Ġà¤¯à¤¸": 6174,
      "à®ļà®ķ": 6175,
      "ene": 6176,
      "ÙĪØ±Øª": 6177,
      "ÛĶÛĶ": 6178,
      "Ġà¦ħà¦ŀ": 6179,
      "ĠÙħØ·": 6180,
      "Ġà¤ªà¤°à¤¤": 6181,
      "Ġà¤¶à¤¤": 6182,
      "Ġbook": 6183,
      "à´´à´ķ": 6184,
      "ĠTo": 6185,
      "à¨ľà¨°": 6186,
      "Ġinf": 6187,
      "Ġ75": 6188,
      "à³§à³": 6189,
      "Ġà®µà®ļà®¤": 6190,
      "Ġàª¸àª¦": 6191,
      "à¨Ĺà¨¦": 6192,
      "ists": 6193,
      "Ġà¦§à¦°à¦¨": 6194,
      "àŃĪ": 6195,
      "à¦ªà¦Ł": 6196,
      "à´¯à´¤à´¯": 6197,
      "à¨ķà©ľ": 6198,
      "à¥ª": 6199,
      "à¯ģ;": 6200,
      "à²ªà²¸": 6201,
      "Ġcent": 6202,
      "Ġà¦¸à¦¹à¦ľ": 6203,
      "à´µà´±": 6204,
      "àª§àª°": 6205,
      "à¦¨à¦¯": 6206,
      "à¤ıà¤²": 6207,
      "à¤¨à¤Ĺ": 6208,
      "à¤£à¤µ": 6209,
      "Ġsay": 6210,
      "à¨¾-": 6211,
      "Ġà°ĺ": 6212,
      "Ġà¨¤à¨¹": 6213,
      "à®¯à®²à®²": 6214,
      "ouse": 6215,
      "ital": 6216,
      "Ġà¤īà¤¡": 6217,
      "à°¦à°Ł": 6218,
      "àŃŁà¬¨": 6219,
      "à¬¦à¬°": 6220,
      "à°®à°²": 6221,
      "à±Ĥ,": 6222,
      "Ġà§«à§": 6223,
      "Ġboth": 6224,
      "Ġà§·à§·": 6225,
      "Ġdown": 6226,
      "Ø§ÙĨÛģ": 6227,
      "Ġà®°à®¤": 6228,
      "à°¨à°²": 6229,
      "Ġà®ļà®¤à®µ": 6230,
      "Ġàª¸àª²": 6231,
      "Ġà¬īà¬ª": 6232,
      "Ġàª¶àª¬": 6233,
      "ale": 6234,
      "ĠØ§ÛĮØ³": 6235,
      "à®©à®ķ": 6236,
      "ull": 6237,
      "Ġfound": 6238,
      "con": 6239,
      "Ġà¨ľà¨²": 6240,
      "Ġà®ĩà®¯à®±": 6241,
      "Ġà§§à§¨": 6242,
      "©à§¦": 6243,
      "àªłàªµ": 6244,
      "Ġà¥§à¥ª": 6245,
      "à¬īà¬Ľ": 6246,
      "à©ĭ,": 6247,
      "à¨Ĩà¨ª": 6248,
      "à¦¾à¦ĥ": 6249,
      "Ġà°ĩà°ļ": 6250,
      "Ġhere": 6251,
      "ology": 6252,
      "à°¾?": 6253,
      "ute": 6254,
      "à´µà´ļ": 6255,
      "Ġà¤°à¤¹à¤¨": 6256,
      "à´İà´¨": 6257,
      "47": 6258,
      "ĠÙĦÙĪÚ¯": 6259,
      "Ġà®Ĳà®¨": 6260,
      "Ġà´µà´ļ": 6261,
      "à¤¯à¤¥": 6262,
      "Ġret": 6263,
      "Ġà²°à²¨": 6264,
      "àª¨àª¤": 6265,
      "Ø¯Ø§Ø±": 6266,
      "à´ļà´ķ": 6267,
      "Ġwhile": 6268,
      "àµºà´Ĺ": 6269,
      "àŃ¨": 6270,
      "Ġà¦ıà¦ķà¦¦": 6271,
      "àª£àª¸": 6272,
      "Ġà°¤à°Ĺ": 6273,
      "Ġdist": 6274,
      "Ġà¨¬à¨ļ": 6275,
      "à²³à²¬à²¹": 6276,
      "Ġext": 6277,
      "Ġà´īà´¨": 6278,
      "àª¡àª²": 6279,
      "à§Łà¦Ĺ": 6280,
      "à¤¨à¤¯": 6281,
      "Ġgr": 6282,
      "Ġà°Ĩà°¦": 6283,
      "ug": 6284,
      "Ġà¤ķà¤°à¤ķ": 6285,
      "à²§à²ķ": 6286,
      "Ġcar": 6287,
      "à´ªà´³": 6288,
      "Ġàªļàª²": 6289,
      "Ġà¦ĵà¦¯": 6290,
      "AN": 6291,
      "Ġà¦Ĺà¦¡": 6292,
      "à°ªà°¦": 6293,
      "à¦¿?": 6294,
      "ĠØ§ØŃ": 6295,
      "Ú¾ÙĪ": 6296,
      "Ġà´ħà´µàµ¼": 6297,
      "Ġà¦Ńà¦¯": 6298,
      "Ġà¤ķà¤Ł": 6299,
      "Ú¾Ø§": 6300,
      "à¦«à¦¤": 6301,
      "àŃĩ,": 6302,
      "Ġàªªàª¡àª¶": 6303,
      "à®µà®²à®°": 6304,
      "à§ģà¥¤": 6305,
      "Ġà¦¬à¦Ļ": 6306,
      "àµ¾à´ª": 6307,
      "à±ĸ": 6308,
      "à³Ĩ-": 6309,
      "à±Ĩà±ĸ": 6310,
      "ĠSp": 6311,
      "à¤ªà¤ļ": 6312,
      "Ġfollow": 6313,
      "Ġà´ħà´£": 6314,
      "Ġà¥§à¥©": 6315,
      "à¤Īà¤¨": 6316,
      "à²µà²¦à²²": 6317,
      "à²¦à²¯": 6318,
      "à¬¢": 6319,
      "à®Łà®£": 6320,
      "à¤Ĩà¤¯": 6321,
      "à³ĩ?": 6322,
      "Ġà¤«à¤ķ": 6323,
      "Ġà´ĩà´¯": 6324,
      "Ġsim": 6325,
      "à¦°à¦Ľ": 6326,
      "Ġà²®à²¸": 6327,
      "Ġà®ĩà®®": 6328,
      "Ġcur": 6329,
      "Ġà°Ĺà°²": 6330,
      "oh": 6331,
      "à²²à²Ĺà²³": 6332,
      "ision": 6333,
      "à°®à°¤": 6334,
      "Ġdet": 6335,
      "Ġà¤¸à¤®à¤ľ": 6336,
      "Ġstr": 6337,
      "Ø§Ø¡": 6338,
      "Ġà®°à®ļ": 6339,
      "ĠÛģÙĪÚº": 6340,
      "à²¹à²°à²£": 6341,
      "Ġà¤¨à¤ľà¤°": 6342,
      "Ġ39": 6343,
      "àª³àªµàªµ": 6344,
      "Ġà²ªà²°à²®": 6345,
      "ered": 6346,
      "Ġsomet": 6347,
      "Ġà¥¯à¥": 6348,
      "Ġà°¨à°Ł": 6349,
      "Ġà¦Ĩà¦¯": 6350,
      "àªŃàª³": 6351,
      "Ġà²¦à²²": 6352,
      "à´¨à´°": 6353,
      "à¦¬à¦ĩ": 6354,
      "io": 6355,
      "à®ªà®ª": 6356,
      "33": 6357,
      "Ġmod": 6358,
      "¥«": 6359,
      "à¨Īà¨¨": 6360,
      "Ġà³¨à³": 6361,
      "à®µà®±": 6362,
      "à°²à°Ĺ": 6363,
      "Ġpoint": 6364,
      "Ġplace": 6365,
      "à¦ľà¦ķ": 6366,
      "Ġàª¸àª¨": 6367,
      "Ġà²Ĵà²¡": 6368,
      "Ġgener": 6369,
      "Ġàªıàª²": 6370,
      "à¤¦à¤Ĺ": 6371,
      "àªµàª²": 6372,
      "ety": 6373,
      "Ġà°ıà°°": 6374,
      "à¤łà¤µ": 6375,
      "à¬¸à¬¨": 6376,
      "Ġà²ľà²¨à²ª": 6377,
      "Ġà²¤à²°à²¬": 6378,
      "ĠÙĨØ§Ùħ": 6379,
      "ĠÙĦÛĮÚ©ÙĨ": 6380,
      "Ġthree": 6381,
      "Ġsign": 6382,
      "à¥ĩ;": 6383,
      "à²¤à²°à²µ": 6384,
      "Ġà¨ħà¨¹": 6385,
      "à²µà²°à²¨": 6386,
      "à²ªà²¦à²²": 6387,
      "Ġà´ĩà´Ļ": 6388,
      "Ġconf": 6389,
      "¥ªà¥": 6390,
      "à´¿âĢĭ": 6391,
      "à¦Ĺà¦®": 6392,
      "Ġà²ļà²Ł": 6393,
      "à®ľà®°": 6394,
      "à¦ĩà¦¸": 6395,
      "Ġadv": 6396,
      "Ġà¤¯à¤ľ": 6397,
      "erest": 6398,
      "à¤ĸà¤µ": 6399,
      "ĠHow": 6400,
      "Ġà¦Ĩà¦Łà¦ķ": 6401,
      "ĠOn": 6402,
      "48": 6403,
      "à¤¨à¤Ĺà¤°": 6404,
      "àªĪàªķ": 6405,
      "Ġi": 6406,
      "à¬ĩà¬Ľà¬¨": 6407,
      "à¦ľà¦²": 6408,
      "Ġà¨¸à¨¦": 6409,
      "à´¯à´µà´¸": 6410,
      "Ġà¦¹à¦°": 6411,
      "Ġàª¸àª®àªĹ": 6412,
      "Ġà«§à«¯": 6413,
      "Ġpartic": 6414,
      "à®Ĩà®°": 6415,
      "à²·à²§": 6416,
      "Ġà¤ıà¤ĸ": 6417,
      "ters": 6418,
      "à¨¨à¨¸": 6419,
      "à¨¨à¨¦": 6420,
      "à¬¿à¬Ĥ": 6421,
      "tt": 6422,
      "Ġàª°àªķ": 6423,
      "Ġà¦ľà§Ł": 6424,
      "Ġcor": 6425,
      "Ġà®ļà®©": 6426,
      "à©¦": 6427,
      "à²¡à²Ĺà²³": 6428,
      "70": 6429,
      "Ġstill": 6430,
      "ier": 6431,
      "à°¨à°¸": 6432,
      "Ġà¤ªà¤¸": 6433,
      "ention": 6434,
      ",âĢĿ": 6435,
      "à²Ĺà²¬à²¹": 6436,
      "Ġsupport": 6437,
      "ĠSo": 6438,
      "à¦¦à¦¯": 6439,
      "ER": 6440,
      "ÙģØª": 6441,
      "ĠGod": 6442,
      "Ġà®µà®©": 6443,
      "à²²à²ķà²°": 6444,
      "à´³à´³": 6445,
      "Ġà²¹à²¨": 6446,
      "Ġà¦ļà¦Ł": 6447,
      "Ġà®İà®³": 6448,
      "Ġmin": 6449,
      "à¦¾?": 6450,
      "ĠØ¨ÛģØª": 6451,
      "àª¸àªŃ": 6452,
      "à¤ķà¤ļ": 6453,
      "Ġà¤²à¤¹": 6454,
      "Ġàª®àª³àª¤": 6455,
      "à¬µ": 6456,
      "Ġà¦¶à¦¨": 6457,
      "Ġà¤ĵà¤³": 6458,
      "Ġà²īà²Ĺ": 6459,
      "à¤Ńà¤ķ": 6460,
      "à´¸à´¯": 6461,
      "ĠØ·Ø±ØŃ": 6462,
      "Ġà²Ńà²¦": 6463,
      "à²µà²Ł": 6464,
      "Ġà®ĥà®ª": 6465,
      "Ġà¤ķà¤¬": 6466,
      "Ġgoing": 6467,
      "Ġà¤ĺà¤Ł": 6468,
      "Ġà´īà´¯": 6469,
      "Ġà´¨à´µ": 6470,
      "Ġà¤ıà¤ķà¤¤": 6471,
      "Ġà¤īà¤ªà¤ļ": 6472,
      "Ġàª®àª³àª¶": 6473,
      "ĠàªĨàªĸ": 6474,
      "à¨°à¨¶": 6475,
      "Ġschool": 6476,
      "Ġlaw": 6477,
      "à¥ĭà¤ĥ": 6478,
      "Ġmet": 6479,
      "à®°à®³": 6480,
      "Ġ:-": 6481,
      "à°ªà°¨": 6482,
      "Ġ2010": 6483,
      "Ġà²ľà²Ĺà²¤": 6484,
      "Ġà´¸à´®à´¯": 6485,
      "àµ½à´¨": 6486,
      "à¥ģ,": 6487,
      "ĠØ±ÛģÛĴ": 6488,
      "ern": 6489,
      "ĠØ§Ú¯Ø±": 6490,
      "à¥ªà¥": 6491,
      "à¨ĸà¨°": 6492,
      "Ġà®¤à®ª": 6493,
      "Ġà°µà°²": 6494,
      "ants": 6495,
      "àª¦àªĹ": 6496,
      "à¦²à¦¸": 6497,
      "Ġà´µà´¯à´¸": 6498,
      "à¤łà¤¨": 6499,
      "ĠàªĹàª¤": 6500,
      "Ġà®ªà®£à®®": 6501,
      "Ġà¦ļà¦²à¦Ľ": 6502,
      "Ġbest": 6503,
      "àª¬àª¦": 6504,
      "à¨¼à¨¾à¨Ĥ": 6505,
      "à²¬à²¨": 6506,
      "Ġà²¬à²°à²²": 6507,
      "Ġser": 6508,
      "à¨µà¨¤": 6509,
      "à¯ģ!": 6510,
      "Ø¢": 6511,
      "Ø§Ø¯ÛĮ": 6512,
      "Ġà¥§à¥¬": 6513,
      "à²®à²¦à²²": 6514,
      "à´®à´£": 6515,
      "ĠàªīàªŃ": 6516,
      "att": 6517,
      "à®ķà®°à®©": 6518,
      "Ġà¦Ĩà¦¸à¦¨": 6519,
      "à¨ħà¨¤": 6520,
      "Ġconc": 6521,
      "à´¶à´¯": 6522,
      "à²¯à²¯à²¨": 6523,
      "Ġà¨īà¨ª": 6524,
      "Ġhome": 6525,
      "Ġà°°à°ķ": 6526,
      "à®©à®©": 6527,
      "Ġà²ĵà²¡": 6528,
      "à²ĺà²¦": 6529,
      "Ġà¦°à¦ķà¦®": 6530,
      "Ġà¤ķà¤Ń": 6531,
      "à³į)": 6532,
      "Ġà´ªà´°à´®": 6533,
      "Ġàª¦àªµ": 6534,
      "ĠØ¯ÛĮÚ©": 6535,
      "à´ļà´±": 6536,
      "ural": 6537,
      "Ġà®ĩà®¯à®²": 6538,
      "à¤¤à¤ķà¤°": 6539,
      "Ġ300": 6540,
      "à®©à®²": 6541,
      "iversity": 6542,
      "Ġà¨§à¨°à¨®": 6543,
      "Ø§Ø¤": 6544,
      "ann": 6545,
      "à°¶à°ķ": 6546,
      "ized": 6547,
      "ĠÛģØ±": 6548,
      "°Ľ": 6549,
      "à°Ľ": 6550,
      "à®·à®®": 6551,
      "Ġà²īà²ļ": 6552,
      "à¤¾:": 6553,
      "Ġà°ĩà°µ": 6554,
      "à¤Łà¤£": 6555,
      "à¦¾âĢĻ": 6556,
      "Ġpur": 6557,
      "àª¿,": 6558,
      "à²¦à²µà²¨": 6559,
      "à´¯à´µà´°": 6560,
      "ÛĮØ§Úº": 6561,
      "Ġà¦ıà¦ķà¦¬": 6562,
      "ature": 6563,
      "à°µà°¹": 6564,
      "à°¡à°Ĺ": 6565,
      "à®ªà®°à®ª": 6566,
      "à¦ķà¦°à¦£": 6567,
      "à¨¸à¨Łà¨°": 6568,
      "à´Ńà´µà´¤": 6569,
      "àµĤ.": 6570,
      "à¤ķà¤³": 6571,
      "Ġ2009": 6572,
      "Ġeach": 6573,
      "Ġà¤ªà¤¨": 6574,
      "Ġà¨Ĺà¨°": 6575,
      "àª«àª°": 6576,
      "ave": 6577,
      "Ġà²¸à²®à²¯": 6578,
      "àªŃàªĹ": 6579,
      "ĠÙĦÚ¯": 6580,
      "Ġinformation": 6581,
      "Ġà§Ń": 6582,
      "Ġà´¸à´ľ": 6583,
      "à¤Łà¤µ": 6584,
      "Ġà¤¸à¤ľ": 6585,
      "ek": 6586,
      "à®µà®©à®Ļ": 6587,
      "à§Łà¦¸": 6588,
      "read": 6589,
      "à¨²à¨ľ": 6590,
      "Ġà¤¨à¤¸à¤¤": 6591,
      "Ġà¬ĺà¬Ł": 6592,
      "ĠÃ": 6593,
      "Ġhand": 6594,
      "Ġà§®": 6595,
      "Ġà¦¬à§ľ": 6596,
      "Ġà²Ĩà²Ł": 6597,
      "Ġà¦®à¦ĩ": 6598,
      "Ġdep": 6599,
      "à²°à²Ł": 6600,
      "ished": 6601,
      "arn": 6602,
      "Ġà´®à´¦": 6603,
      "à¥ĭ-": 6604,
      "Ġcomple": 6605,
      "à°®à°®": 6606,
      "ÙĪØ¬": 6607,
      "¥Ŀ": 6608,
      "Ġà¤Ĩà¤®à¤¦": 6609,
      "à¥Ŀ": 6610,
      "Ġà¬¸à¬®à¬¸": 6611,
      "àªľàªªàª¨": 6612,
      "ÙħÙĨ": 6613,
      "uss": 6614,
      "Ġà®Ĵà®³": 6615,
      "à¤ķà¤¦": 6616,
      "Ġà°¸à°®à°¯": 6617,
      "Ġ55": 6618,
      "à´·à´ķ": 6619,
      "Ġà²ħà²°à²£": 6620,
      "Ġà®ıà®´": 6621,
      "à¦Łà¦²": 6622,
      "Ġà´ªà´ķà´°": 6623,
      "à¬ľà¬°": 6624,
      "Ġà¬Ĩà¬®": 6625,
      "Ġàª°àªµ": 6626,
      "àª¹àª°": 6627,
      "à¦¬à¦¶": 6628,
      "Ġhealth": 6629,
      "Ġà²ħà²ľ": 6630,
      "à¨£à¨¤": 6631,
      "ĠØªØŃ": 6632,
      "Ġà¤ķà¤¡": 6633,
      "à¤¾)": 6634,
      "Ġà¥§à¥®": 6635,
      "àª¬àª¨": 6636,
      "Ġà®ķà®ª": 6637,
      "à¤ļà¤¯": 6638,
      "Ġàª²àªĩ": 6639,
      "àª£àªķ": 6640,
      "Ġà¤ªà¤²": 6641,
      "Ġ150": 6642,
      "à¦¸à¦ķà¦²": 6643,
      "à°ľà°¯": 6644,
      "AR": 6645,
      "à¨ĸà¨¤": 6646,
      "ĠShe": 6647,
      "à´¤à´¨à´Ļ": 6648,
      "à²¾?": 6649,
      "Ġà¤¤à¤²": 6650,
      "Ġà²īà²¸": 6651,
      "Ġà§§à§§": 6652,
      "à¥ģ.": 6653,
      "à¦°à¦°": 6654,
      "illion": 6655,
      "Ġà«¯": 6656,
      "Ġà¦¬à¦¯": 6657,
      "Ġà¤ıà¤ķà¤¦": 6658,
      "Ġà°ķà°³": 6659,
      "à¥ģà¥Ĵ": 6660,
      "ody": 6661,
      "à²¸à²¤": 6662,
      "Ġà¨ªà¨²": 6663,
      "à¤°à¤µà¤°": 6664,
      "ĠØ³ÛĮ": 6665,
      "Ġà²ķà²¸": 6666,
      "à§Łà¦¤": 6667,
      "ense": 6668,
      "Ú©ÛĴ": 6669,
      "Ġà°ĩà°²": 6670,
      "à¤łà¤²": 6671,
      "ages": 6672,
      "à¦¦à¦¶": 6673,
      "Ġà´¤à´ķà´°": 6674,
      "ĠQ": 6675,
      "àª¹àªķ": 6676,
      "ically": 6677,
      "Ġà´¬à´¸": 6678,
      "ash": 6679,
      "àª³àªĸ": 6680,
      "The": 6681,
      "à²µà²®": 6682,
      "à´µà´°à´Ļ": 6683,
      "Ġthings": 6684,
      "Ġà²¶à²¨": 6685,
      "ĠÙ¾Úĳ": 6686,
      "Ġà©¨": 6687,
      "à¤ıà¤¨": 6688,
      "à²İà²¨": 6689,
      "Ġà²Ĭà²°": 6690,
      "à¤°à¤¹à¤£": 6691,
      "à¤«à¤²": 6692,
      "à¤¤à¤ķà¤±": 6693,
      "Ġà¦¬à¦¦à¦²": 6694,
      "Ġà®¤à®°à®ª": 6695,
      "Ġà¨īà¨ªà¨°": 6696,
      "Ġà¤¬à¤¦": 6697,
      "ĠĠĠĠĠĠĠĠĠĠĠĠĠĠĠĠĠĠĠĠĠĠĠĠĠĠĠĠĠĠĠĠ": 6698,
      "Ġà²¶à²°": 6699,
      "****": 6700,
      "Ġlar": 6701,
      "à¤°à¤®à¤£": 6702,
      "«à§¦": 6703,
      "Ġà²ħà²£": 6704,
      "ĠØ¬Ø§Ø¦ÛĴ": 6705,
      "Ġàªķàª¦": 6706,
      "Ġav": 6707,
      "à²¯à²µà²¹": 6708,
      "Ġàª¹àªķ": 6709,
      "à´¤à´°à´®": 6710,
      "Ġduring": 6711,
      "Ġà²ľà²°": 6712,
      "à²³à²¨": 6713,
      "à®ªà®³": 6714,
      "Ġà²°à²®": 6715,
      "Ġpublic": 6716,
      "à²°à²µà²¸": 6717,
      "àµĪà´Ĥ": 6718,
      "Ġcontin": 6719,
      "àªļàª®": 6720,
      "Ġà²ĭ": 6721,
      "Ġàª¤àª¬": 6722,
      "àªĹàª³": 6723,
      "à´¦à´¤": 6724,
      "ined": 6725,
      "Ġà®ħà®®à®°": 6726,
      "Ġà¤ħà¤¡": 6727,
      "90": 6728,
      "à³ģ;": 6729,
      "à²°à²®à²¦à²²": 6730,
      "à¦īà¦ľ": 6731,
      "Ġà²®à²ł": 6732,
      "Ġà®ªà®Łà®Ļ": 6733,
      "à´·à´ķà´°": 6734,
      "Ġà¤¶à¤¹": 6735,
      "àµĭ?": 6736,
      "Ġwom": 6737,
      "à²ļà²²": 6738,
      "Ġà¦¹à§Łà¦¨": 6739,
      "akes": 6740,
      "Ġà²°à²ļà²¨": 6741,
      "Ġà¤Ĩà¤£à¤ĸ": 6742,
      "Ġà¦²à¦Ĺ": 6743,
      "àª°àª¤àª®": 6744,
      "Ġcre": 6745,
      "ĠØ§Ø±": 6746,
      "à¨¿à©į": 6747,
      "orn": 6748,
      "à²ķà²¸à²Ń": 6749,
      "Ġà¦Ńà¦ķ": 6750,
      "iel": 6751,
      "Ġ2008": 6752,
      "ÙĪØ³": 6753,
      "à¬ªà¬£": 6754,
      "à²¨à²¸à²Ń": 6755,
      "à¤·à¤§": 6756,
      "ex": 6757,
      "Ġà²¹à²²": 6758,
      "ÙħØª": 6759,
      "Ø±ÛĮÚ©": 6760,
      "Ġà¦¸à¦ļ": 6761,
      "à¤¸à¤£": 6762,
      "75": 6763,
      "Ġà¦Ĩà¦¸à¦²": 6764,
      ".âĢĿ": 6765,
      "àª¸àªķ": 6766,
      "àªĩàªķ": 6767,
      "à¬¸à¬°": 6768,
      "Ġà¤Ĩà¤ı": 6769,
      "Ġà¦²à¦Ĺà¦¤": 6770,
      "ves": 6771,
      "ĠII": 6772,
      "à¦¨à¦²": 6773,
      "à°µà°ķ": 6774,
      "àªĿàª°": 6775,
      "Ġà°µà°°à°ķ": 6776,
      "à®®à®¨": 6777,
      "Ġprovid": 6778,
      "Ġà¦ĩà¦¯": 6779,
      "Ġfeel": 6780,
      "ĠZ": 6781,
      "Ù°": 6782,
      "Ġà°ĩà°Ł": 6783,
      "ÛĮØ²": 6784,
      "à¦ªà¦¥": 6785,
      "à²Ĺà²³à²µ": 6786,
      "Ġà°µà°¦": 6787,
      "à²¤à²¸": 6788,
      "Ġà¤ħà¤ªà¤°": 6789,
      "à²ķà²¦à²²": 6790,
      "Ġà¤ķà¤°à¤µ": 6791,
      "Ġprogram": 6792,
      "Ġà²Ĩà²®": 6793,
      "Ġappro": 6794,
      "à¦¼à§ĩà¥¤": 6795,
      "Ġà¤¨à¤Ī": 6796,
      "Ġà¦ľà¦Ļ": 6797,
      "ĠIs": 6798,
      "à°·à°®": 6799,
      "à°²à°°": 6800,
      "à¤¯à¤ľ": 6801,
      "Ġà´ıà´´": 6802,
      "me": 6803,
      "Ġposs": 6804,
      "ĠÙĩ": 6805,
      "ten": 6806,
      "Ġà¨µà¨°à¨Ĺ": 6807,
      "Ġà¦ªà¦²": 6808,
      "ĠØ¬Ø§": 6809,
      "à¥¤âĢĿ": 6810,
      "Ġinterest": 6811,
      "rent": 6812,
      "Ġà¨¨à¨Ĺà¨°": 6813,
      "ĠÙ¾Ø§Ú©Ø³ØªØ§ÙĨ": 6814,
      "à¦«à¦°": 6815,
      "à¤¬à¤³": 6816,
      "Ġà¦®à¦ľ": 6817,
      "36": 6818,
      "à´°à´®à´²": 6819,
      "Ġaround": 6820,
      "Ġreally": 6821,
      "Ġà´ķà´Łà´¨": 6822,
      "à¬¤à¬¨": 6823,
      "Ġà²ķà²®": 6824,
      "à«ĢàªĤ.": 6825,
      "Ġà¤īà¤ĺ": 6826,
      "Ġà¨Ĳà¨²": 6827,
      "Ġà¤¬à¤ĺ": 6828,
      "Ġà¤ħà¤²à¤Ĺ": 6829,
      "Ġà¥¨à¥«": 6830,
      "à²¤à²°à²¦": 6831,
      ");": 6832,
      "Ġà¤īà¤°": 6833,
      "à²³à²µà²¡": 6834,
      "Ġà§§à§«": 6835,
      "Ġà²¯à²¡": 6836,
      "ploy": 6837,
      "à¤µà¤°à¤ļ": 6838,
      "à¦¬à¦¯": 6839,
      "à´µà´ª": 6840,
      "Ġà®ĩà®±à®¨": 6841,
      "à²¹à²ķ": 6842,
      "ĠÚ©ÚĨÚ¾": 6843,
      "à¥«": 6844,
      "Ġpri": 6845,
      "38": 6846,
      "Ġhapp": 6847,
      "àª³àª®": 6848,
      "Ġà¤ªà¤¡à¤¤": 6849,
      "ĠSc": 6850,
      "Ġà¦ªà¦£": 6851,
      "à«ĩ!": 6852,
      "à¤·à¤¸": 6853,
      "ªà³": 6854,
      "Ġà§¬à§": 6855,
      "ĠØ¯ÙĪØ±": 6856,
      "à¦°à¦¸à¦Ļ": 6857,
      "Ġàª²àªĹàªŃàªĹ": 6858,
      "Ġàªħàªķ": 6859,
      "à¦¨à¦®": 6860,
      "Ġmust": 6861,
      "ĠØŃØ¶": 6862,
      "Ġà²Ĩà²Ĺà²²": 6863,
      "ple": 6864,
      "àªĽàª³": 6865,
      "à²µà²°à²£": 6866,
      "line": 6867,
      "à®ªà®µà®®": 6868,
      "àªıàª¨": 6869,
      "Ġà®ħà®µà®ļ": 6870,
      "ĠÚĨØ§Ûģ": 6871,
      "ĠÙĤØ±": 6872,
      "à¤¾;": 6873,
      "à¤ĩà¤ķ": 6874,
      "Ġà²ĩà²¦à²°à²²": 6875,
      "Ġà²Ķà²·à²§": 6876,
      "Ġ2021": 6877,
      "Ġà¦°à¦¹à¦®": 6878,
      "à®®à®Ļ": 6879,
      "Ġà²Ĩà²Ĺà²®": 6880,
      "ĠàªĨàªªàª¤": 6881,
      "à¦Ĺà¦łà¦¨": 6882,
      "Ġà¦ľà¦¯": 6883,
      "Ġà´ħà´µà´¤à´°": 6884,
      "àª²àª¬": 6885,
      "Ġà®ªà®¯à®£": 6886,
      "Ġà´¬à´¹": 6887,
      "Ġà²īà²ªà²¯": 6888,
      "Ġàª¬àª¤": 6889,
      "Ġà¤ľà¤¬à¤ķ": 6890,
      "Ġà°¸à°¤": 6891,
      "ibr": 6892,
      "à´±à´¸": 6893,
      "à´µà´¨à´ķ": 6894,
      "ĠÚ©Ø§Ø±": 6895,
      "à²µà²¹à²£": 6896,
      "44": 6897,
      "ØªÙħ": 6898,
      "Ġà²ªà²¶": 6899,
      "à¦¡à¦²": 6900,
      "Ġà¤īà¤¸à¤¨": 6901,
      "Ġà¦®à¦®à¦¤": 6902,
      "àªĸàª®": 6903,
      "à²£à²Ĺà²³": 6904,
      "à¤¯à¤Ĺ": 6905,
      "à¦Ĺà¦ķ": 6906,
      "ĠAd": 6907,
      "ĠàªĹàª°àª®": 6908,
      "à²°à²£à²¦": 6909,
      "à®®à®£à®®": 6910,
      "à¦¸à¦¤": 6911,
      "Ġà¤ĩà¤¨à¤ķ": 6912,
      "Ġresult": 6913,
      "Ġàª¸àª¤àª¤": 6914,
      "pr": 6915,
      "´Ĵ": 6916,
      "à´Ĵ": 6917,
      "ÙħØ§ÙĨ": 6918,
      "Ġà´ĩà´¸": 6919,
      "à®¯à®µà®±": 6920,
      "àŃ§àŃ": 6921,
      "Ġà¦¥à¦ķ": 6922,
      "à§±à§°": 6923,
      "à°ľà°ķ": 6924,
      "à¤£à¤®": 6925,
      "ĠÙħÛĮØ±": 6926,
      "Ġà´ªà´¶": 6927,
      "à²¹à²µ": 6928,
      "Ġà²®à²°à²³": 6929,
      "Ġà¨¹à¨¸": 6930,
      "àª²àª¸": 6931,
      "Ġà¦ľà¦¬": 6932,
      "Ġà¦®à¦£": 6933,
      "àªłàª³": 6934,
      "ÙĪØ§": 6935,
      "Ġà¨®à¨°": 6936,
      "Ġà¦ħà¦ľ": 6937,
      "ĠTr": 6938,
      "Ġà¬ķà¬®": 6939,
      "Ġà¤ħà¤Łà¤ķ": 6940,
      "Ġà²ªà²¦à²µ": 6941,
      "àŃģà¬ģ": 6942,
      "à¯ģ)": 6943,
      "à¤°à¤·": 6944,
      "Ġà¦ħà¦¥à¦¬": 6945,
      "Ġàªªàª°àª®": 6946,
      "Ġà¤¬à¤¸à¤²": 6947,
      "Ġà¦Ńà¦¬": 6948,
      "Ġà®®à®¨": 6949,
      "br": 6950,
      "gy": 6951,
      "Ġà¬īà¬ªà¬°": 6952,
      "Ġiss": 6953,
      "Ġà§¯": 6954,
      "Ġà¦ıà¦®": 6955,
      "Ġ65": 6956,
      "à®ķà®¨": 6957,
      "à¤¶à¤¬": 6958,
      "ĠØ¬Ùħ": 6959,
      "Ġà®³": 6960,
      "Ġà¦ľà¦°": 6961,
      "Ġà¦Ĩà¦¸à¦Ľ": 6962,
      "à´µàµ»": 6963,
      "à¨²à¨°": 6964,
      "Ġà²ħà²³à²µà²¡": 6965,
      "à¦¶à¦¬": 6966,
      "Ġà¦ļà¦¤": 6967,
      "Ġà²¯à²¤": 6968,
      "Ġà²§à²¨": 6969,
      "à§ĩ!": 6970,
      "à¨¦à¨Ĺ": 6971,
      "®Ĵ": 6972,
      "à®Ĵ": 6973,
      "à¬°à¬¦": 6974,
      "Ġà¦¦à¦«": 6975,
      "Ġà°ıà°®": 6976,
      "ĠGo": 6977,
      "Ġà¦¨à¦°": 6978,
      "Ġà¦¸à¦¬à¦ļ": 6979,
      "à¨¦à¨µ": 6980,
      "Ġest": 6981,
      "Ġgroup": 6982,
      "ĠØ³Ùħ": 6983,
      "Ġà¨ªà¨°à¨®": 6984,
      "66": 6985,
      "à´²à´±": 6986,
      "Ġà´Ĩà´²": 6987,
      "Ġàªıàª®àª¨": 6988,
      "Ùī": 6989,
      "bers": 6990,
      "Ġà§¨à§¦": 6991,
      "Ġà²ħà²¬": 6992,
      "Ġà²¤à²³": 6993,
      "à¤ĸà¤£": 6994,
      "à¥Ģ'": 6995,
      "ared": 6996,
      "à´¯àµ½": 6997,
      "Ġà¨Ĩà¨ı": 6998,
      "ertain": 6999,
      "Ġà¦ķà¦ł": 7000,
      "à¤®à¤®": 7001,
      "rist": 7002,
      "à¨Ĥ,": 7003,
      "Ġà¤ķà¤ł": 7004,
      "à¨Łà¨ķ": 7005,
      "àª®àªµ": 7006,
      "à²¤à²µà²¨": 7007,
      "à´¥à´°": 7008,
      "à´°à´Ń": 7009,
      "à¦¨à§Łà¦¨": 7010,
      "à³ģ)": 7011,
      "à¦Ĺà¦¦": 7012,
      "Ġprocess": 7013,
      "Ġopp": 7014,
      "à²Łà²µà²¨": 7015,
      "à²²à²²": 7016,
      "à´°à´®à´£": 7017,
      "Ġvis": 7018,
      "ĠÙĪÙĤØª": 7019,
      "ways": 7020,
      "ĠÚ¯Ø¦ÛĮ": 7021,
      "Ġà®Ĭà®´": 7022,
      "à§±à¦¸": 7023,
      "ocial": 7024,
      "ross": 7025,
      "Ġgl": 7026,
      "à²¨à²¯": 7027,
      "ĠàªŃàªĹàªµ": 7028,
      "ĠØ³Ø§ÙĦ": 7029,
      "à¬ķà¬Ļ": 7030,
      "Ġà®µà®±": 7031,
      "Ġàªªàªķàª¡": 7032,
      "à¨ªà¨¸": 7033,
      "à¬°à¬¹": 7034,
      "§¨à": 7035,
      "Ġà®ķà®Łà®µ": 7036,
      "stand": 7037,
      "Ġà²Ńà²¯": 7038,
      "the": 7039,
      "à¤¡à¤ª": 7040,
      "eng": 7041,
      "Ġprof": 7042,
      "à¤¡à¤¸": 7043,
      "ÙĦÙĤ": 7044,
      ",\"": 7045,
      "à¦°à¦ķà¦®": 7046,
      "à¦ªà¦£": 7047,
      "à¦ªà¦·": 7048,
      "Ġàªīàªł": 7049,
      "à¬ĵ": 7050,
      "Ġorgan": 7051,
      "à·Ĭ": 7052,
      "Ġà²ľà²¨à²¤": 7053,
      "Ġmarket": 7054,
      "ĠàªªàªĹ": 7055,
      "ĠLe": 7056,
      "Ġà²Ĩà²µ": 7057,
      "ĠØ²ÛĮØ§": 7058,
      "Ø§ÙĨØ§": 7059,
      "à¤īà¤¨": 7060,
      "Ġà¨¸à¨²": 7061,
      "à¦²à¦²": 7062,
      "Ġàªħàª¦": 7063,
      "àªªàª²": 7064,
      "à¤ľà¤µà¤³": 7065,
      "à²¹à²ķà²°": 7066,
      "à°Ńà°µ": 7067,
      "à´±à´¡": 7068,
      "Ġimportant": 7069,
      "Ġmat": 7070,
      "Ġà²Ńà²°à²µà²¸": 7071,
      "àªµàªļ": 7072,
      "Ġà¦¨à¦¨": 7073,
      "Ġval": 7074,
      "riend": 7075,
      "Ġpass": 7076,
      "à¨ľà¨²": 7077,
      "Ġfil": 7078,
      "Ġpat": 7079,
      "àª¨àªķ": 7080,
      "ral": 7081,
      "Ġàªķàª¯": 7082,
      "Ġà´¸à´Ń": 7083,
      "Ġà¤īà¤¤à¤°": 7084,
      "àŃ«": 7085,
      "Ġreport": 7086,
      "Ġà¨Ĩà¨ī": 7087,
      "37": 7088,
      "Ġà°Ĩà°²": 7089,
      "à¤¤à¤³": 7090,
      "à¤ªà¤µ": 7091,
      "Ġàªīàªļ": 7092,
      "à®µà®£": 7093,
      "ĠWhat": 7094,
      "Ġhum": 7095,
      "ĠÚ¯ÛĴ": 7096,
      "à®®à®±": 7097,
      "Ġà°ķà°¥": 7098,
      "Ġà¦Ĺà¦Ń": 7099,
      "iving": 7100,
      "§§": 7101,
      "Ġà¦ıà¦°à¦ªà¦°": 7102,
      "à©¬": 7103,
      "à°ľà°°": 7104,
      "Ġincre": 7105,
      "Ġà¤¦à¤¶": 7106,
      "à¤·à¤°": 7107,
      "Ġcome": 7108,
      "à´³à´¨": 7109,
      "à´¬àµ¼": 7110,
      "bs": 7111,
      "Ġnumber": 7112,
      "ĠØ§Ø³ÙĦØ§Ùħ": 7113,
      "ĠâĢ¦": 7114,
      "ĠàªĨàªªàª¨": 7115,
      "Ġàªķàªļ": 7116,
      "Ġà´®à´§": 7117,
      "¥¬": 7118,
      "Ġà°Ĩà°¶": 7119,
      "ĠàªŃàªµ": 7120,
      "à§Łà¦°": 7121,
      "à¤ıà¤«": 7122,
      "à²°à²®à²¦": 7123,
      "à´¶à´®": 7124,
      "Ġà¤ªà¤°à¤µ": 7125,
      "Ø¨Ûģ": 7126,
      "Ġà¤ĩà¤¤à¤¨": 7127,
      "à¥įà¥¤": 7128,
      "à´ľà´°": 7129,
      "à¨¡à¨²": 7130,
      "à´Łàµ¼": 7131,
      "ĠØ§ÙĪ": 7132,
      "à¤Łà¤ª": 7133,
      "Ø´Øª": 7134,
      "ering": 7135,
      "Ġà°İà°µà°°": 7136,
      "Ġà®¤à®¤": 7137,
      "à²¤à²ª": 7138,
      "°ĩ": 7139,
      "Ġà¬ªà¬ķ": 7140,
      "Ġà¥§à¥Ń": 7141,
      "Ġbelie": 7142,
      "Ġà®Ĩà®Ļ": 7143,
      "ms": 7144,
      "à°ĩ": 7145,
      "Ġà¨ķà¨°à¨®": 7146,
      "Ġà¤ħà¤Ĺà¤¦": 7147,
      "ien": 7148,
      "à²Ī": 7149,
      "Ġà¤µà¤¯": 7150,
      "à²¨à²µà²°": 7151,
      "à¥ĩà¤ĥ": 7152,
      "Ġà¨¹à¨¸à¨ªà¨¤": 7153,
      "à¤ķà¤¸à¤Ń": 7154,
      "à°¸à°¨": 7155,
      "Ġà¨¡à¨°": 7156,
      "Ġà¨¸à¨«": 7157,
      "ially": 7158,
      "Ġfamily": 7159,
      "à²¨à²·": 7160,
      "ĠThat": 7161,
      "Ġàªħàª°àªľ": 7162,
      "à¤½à¤¨": 7163,
      "Ġà²¬à²Ł": 7164,
      "à¦ķà¦ľà¦¨": 7165,
      "à³į:": 7166,
      "ĠÚ¯Ø¦ÛĴ": 7167,
      "à¤£à¤ķ": 7168,
      "ĠÚ¯Ø±": 7169,
      "à¦ĺà¦°": 7170,
      "Ġà¦«à¦°": 7171,
      "à¦¬à¦¹": 7172,
      "à²¤à²¡": 7173,
      "Ġà´Ķ": 7174,
      "à°¿..": 7175,
      "Ġà²¸à²¸": 7176,
      "à¤½à¤¸": 7177,
      "à²µà²¨à²¦à²²": 7178,
      "à´¯à´£": 7179,
      "Ġrese": 7180,
      "Ġà¤Ĩà¤ļ": 7181,
      "àªľàª¸": 7182,
      "Ġà®ªà®ŀ": 7183,
      "Ġincluding": 7184,
      "Ġà´Ĵà´ª": 7185,
      "Ø§Ø¶": 7186,
      "Ġà¬īà¬¤": 7187,
      "à¤²à¤Ń": 7188,
      "à¦ľà¦®": 7189,
      "Ġmain": 7190,
      "à¤¸à¤Ĺ": 7191,
      "ĠÙģÛĮ": 7192,
      "ĠPh": 7193,
      "Ġà¦ĺà¦¨": 7194,
      "à¨ĩà¨°": 7195,
      "à«ĩ-": 7196,
      "Ġword": 7197,
      "à¤¥à¤³": 7198,
      "Ġà¤Ńà¤¯": 7199,
      "Ġà¤¨à¤Ĺ": 7200,
      "à¦²à§°": 7201,
      "Ġà¤łà¤°à¤²": 7202,
      "à¨Ĥà¥¤": 7203,
      "Ġà²Ĩà²¸à²ķ": 7204,
      "à²ī": 7205,
      "à¯įâĢĿ": 7206,
      "à²¨à²Ĺà²³à²¨": 7207,
      "àŃŁà¬¤": 7208,
      "Ġà§Ńà§": 7209,
      "à³į'": 7210,
      "à§§": 7211,
      "à¦ªà¦¸": 7212,
      "Ġà¦°à¦¸": 7213,
      "Ġeffect": 7214,
      "Ġà´¸à´ŀ": 7215,
      "Ġ44": 7216,
      "Ġinvest": 7217,
      "Ġà¦ĩà¦¸": 7218,
      "à²ľà²¦": 7219,
      "Ġà«§à«¨": 7220,
      "Ġà¦¹à¦ł": 7221,
      "ĠWhen": 7222,
      "à¥Ģà¤Ĥà¥¤": 7223,
      "àª¯àªª": 7224,
      "àª¶àªŃ": 7225,
      "à´³à´ľ": 7226,
      "Ġà¦ķà¦ĸà¦¨à¦ĵ": 7227,
      "Ġà®¨à®ªà®°": 7228,
      "àµįâĢį:": 7229,
      "Ġmonth": 7230,
      "à²Ĺà²¸": 7231,
      "à´ķà´¸": 7232,
      "à²¤à²°à²£": 7233,
      "Ġwithout": 7234,
      "Ġàª¸àªľ": 7235,
      "ĠàŃ¨àŃ¦": 7236,
      "Ġfew": 7237,
      "Ġà¤²à¤Ĺà¤¤": 7238,
      "Ġà§§à§®à§": 7239,
      "Ġà¥§à¥§à¥": 7240,
      "39": 7241,
      "à°¤à°µ": 7242,
      "ĠBe": 7243,
      "Ġà²īà²°": 7244,
      "à´°à´£à´¤": 7245,
      "ÙħØ§ÙĦ": 7246,
      "à²ļà²ķ": 7247,
      "à´¥à´¨": 7248,
      "Ġà²µà²ķ": 7249,
      "Ġtechn": 7250,
      "less": 7251,
      "Ġà¦ķà¦¹": 7252,
      "à¦²à¦¦": 7253,
      "pect": 7254,
      "à¬°à¬¬": 7255,
      "Ġanother": 7256,
      "Ġsince": 7257,
      "àª¹àª¤": 7258,
      "Ġà´Ĵà´±": 7259,
      "Ġà¦Īà¦¶": 7260,
      "à°ľà°®": 7261,
      "à¥Ĥ,": 7262,
      "à®Łà®±": 7263,
      "Ġà®ķà®Łà®©": 7264,
      "Ġà¤¸à¤¹à¤ķ": 7265,
      "à±ģ..": 7266,
      "Ġà¤µà¤¡": 7267,
      "Ġlot": 7268,
      "Ġà¤ªà¤ķà¤¡": 7269,
      "à®ľà®¯": 7270,
      "34": 7271,
      "à¦ľà¦¯": 7272,
      "à¤°à¤°": 7273,
      "§©à§": 7274,
      "à®ĩà®¨": 7275,
      "à©Ń": 7276,
      "Ġà²Ĵà²®": 7277,
      "à¦°à¦ķà¦²": 7278,
      "Ġà¨¦à¨¸": 7279,
      "ĠÙĪØ§ÙĦÛĴ": 7280,
      "Ġàªªàª¡àª¤": 7281,
      "àª°àªĹ": 7282,
      "Ġexpl": 7283,
      "Ġà¬¸à¬¬": 7284,
      "Ġà¤ľà¤¸": 7285,
      "Ġàª¬àª°": 7286,
      "Ġ66": 7287,
      "Ġà²ħà²³": 7288,
      "à´Ĩà´°": 7289,
      "Ġleg": 7290,
      "à²°à²¸à²Ń": 7291,
      "à²³à²µà²£": 7292,
      "à§©à§": 7293,
      "Ġà¤ļà¤²à¤¤": 7294,
      "Ġhist": 7295,
      "Ġà¬ıà¬¥": 7296,
      "Ġà´īàµ¾à´ª": 7297,
      "à´¬à´¤": 7298,
      "Ġà¤Īà¤¶": 7299,
      "Ġà´ķà´¸": 7300,
      "à´¹à´¸": 7301,
      "Ġcle": 7302,
      "Ġàª¸àªķ": 7303,
      "à¤ĸà¤®": 7304,
      "Ġà¬°à¬ĸ": 7305,
      "Ġà²ľà²µ": 7306,
      "Ġagainst": 7307,
      "à§°à¦¹": 7308,
      "Ġà´ªà´°à´¸": 7309,
      "EE": 7310,
      "à¦¬à¦Ń": 7311,
      "à´¸à´°à´¤": 7312,
      "Ġteam": 7313,
      "ĠØ±Ø§": 7314,
      "Ġà°ħà°Ł": 7315,
      "gg": 7316,
      "ĠàªħàªŁàªķ": 7317,
      "Ġà´Ĭ": 7318,
      "ĠComm": 7319,
      "Ġà¬Ĩà¬ľ": 7320,
      "Ø±Ûģ": 7321,
      "à¦Ĺà¦ŀ": 7322,
      "Ġà²Ĩà²µà²°": 7323,
      "à¦ĩà¦ľ": 7324,
      "Ġà¥§à¥¯": 7325,
      "Ġwr": 7326,
      "ivid": 7327,
      "Ġà¤ĺà¤¡à¤²": 7328,
      "Ġà´®à´ŀ": 7329,
      "ĠNo": 7330,
      "Ġà°Ĺà°¤": 7331,
      "à¬·à¬£": 7332,
      "Ġà²¨à²ķ": 7333,
      "à¥ĩ?": 7334,
      "nce": 7335,
      "à³Ĩ!": 7336,
      "à¬Ĩà¬°": 7337,
      "Ġquest": 7338,
      "Ġà¦ħà¦¦": 7339,
      "à°£à°¯": 7340,
      "ĠØ²ÛĮØ§Ø¯Ûģ": 7341,
      "à¤Īà¤ķ": 7342,
      "Ġà¨²à©ľ": 7343,
      "à²ĸà²µ": 7344,
      "àªªàª·": 7345,
      "31": 7346,
      "Ġ46": 7347,
      "Ġà¨¬à¨¦à¨²": 7348,
      "Ġà¤ľà¤Ĺà¤¹": 7349,
      "ional": 7350,
      "Ġà²¬à²³à²¸à²²": 7351,
      "à°°à°¬": 7352,
      "à¦¶à¦¤": 7353,
      "Ġà´®à´ķ": 7354,
      "Ġà´Ĩà´µ": 7355,
      "à¤²à¤ª": 7356,
      "à´§à´°": 7357,
      "Ġà¤°à¤®": 7358,
      "à°¤à°Ĺ": 7359,
      "à¥¤à¥¤": 7360,
      "Ġcompany": 7361,
      "view": 7362,
      "Ġà¨ķà¨¬": 7363,
      "Ġà¬ķà¬²": 7364,
      "ruct": 7365,
      "Ġàªħàªľ": 7366,
      "Ġà¤ıà¤ª": 7367,
      "Ġà¨ľà¨µ": 7368,
      "à¦¶à¦²": 7369,
      "à³ĭ,": 7370,
      "ĠØ§Ûģ": 7371,
      "Ġà¤°à¤¤": 7372,
      "à°§à°¨": 7373,
      "à¤Ńà¤Ĺ": 7374,
      "à´¶à´¦": 7375,
      "Ġà²ļà²³": 7376,
      "ĠÙħØ³ÙĦÙħ": 7377,
      "à¤¡à¤®": 7378,
      "32": 7379,
      "¥Ł": 7380,
      "à¥Ł": 7381,
      "à¤®à¤¶": 7382,
      "à²µà²¨à²¦": 7383,
      "Ġà²ħà²¹": 7384,
      "à®ªà®Łà®¤": 7385,
      "à¦²à¦ª": 7386,
      "Ġà®İà®ļ": 7387,
      "Ġà²Ĩà²Łà²Ĺ": 7388,
      "Ġà®Īà®°": 7389,
      "uthor": 7390,
      "Ġà¨ľà¨Ĺ": 7391,
      "à¤¬à¤Īà¤¤": 7392,
      "Ġdirect": 7393,
      "Ġà²¶à²°à²£": 7394,
      "à°®à°£": 7395,
      "inal": 7396,
      "Ġà®ªà®¸": 7397,
      "ĠÙ¾Ú¾Ø±": 7398,
      "500": 7399,
      "ired": 7400,
      "ases": 7401,
      "à³ģ!": 7402,
      "àªļàªķ": 7403,
      "ĠSe": 7404,
      "Ġà¨īà¨®": 7405,
      "à³Īà²Ĥ": 7406,
      "ised": 7407,
      "ÙĪØª": 7408,
      "Ġà²¶à²¬": 7409,
      "à²¦à²·": 7410,
      "Ġà²ħà²ļ": 7411,
      "à¨¨à¨¤": 7412,
      "Ĺı": 7413,
      "ĠØ¯ÛĮÙĨ": 7414,
      "Ġà¦®à¦¸": 7415,
      "à§Łà¦®": 7416,
      "à¤Łà¤¸": 7417,
      "Ġ2000": 7418,
      "àªµàªª": 7419,
      "Ġà°¸à°Ń": 7420,
      "Ġà²¨à²·": 7421,
      "à¬°à¬Ļ": 7422,
      "ĠØ·ÙĪØ±": 7423,
      "Ġà²īà²ªà²¸": 7424,
      "ha": 7425,
      "Ġà¤ªà¤ŀ": 7426,
      "Ġà´®à´ķà´¨": 7427,
      "à°ļà°²": 7428,
      "à¨¼à©ĭ": 7429,
      "Ġsk": 7430,
      "à´¸à´£": 7431,
      "Ø¹Ûģ": 7432,
      "Ġtoo": 7433,
      "Ġà´ļà´¨": 7434,
      "ĠÙĥ": 7435,
      "à¦ıà¦¨à¦ª": 7436,
      "àª§àª¤": 7437,
      "à®¤à®µà®©": 7438,
      "ize": 7439,
      "Ġà´¨à´°": 7440,
      "Ġà¥©à¥¦": 7441,
      "àª§àª®": 7442,
      "à¤§à¤²": 7443,
      "ĠØ¯ÙĦ": 7444,
      "Ġ47": 7445,
      "à¦¶à¦¯": 7446,
      "à²¶à²Ĺà²³à²¨": 7447,
      "ĠàŃª": 7448,
      "Ġà«§à««": 7449,
      "à²¥à²¨": 7450,
      "55": 7451,
      "àµ¾à´ķ": 7452,
      "Ġcountry": 7453,
      "à®³à®²": 7454,
      "Ġsomething": 7455,
      "Ġà¨īà¨¸à¨¦": 7456,
      "iven": 7457,
      "Ġà§¨à§¦à§¦à§": 7458,
      "Ġà²°à²·": 7459,
      "à¤ªà¤ı": 7460,
      "ĠÙĨÙĪ": 7461,
      "ĠØ§ÙĨØª": 7462,
      "Ġà²ħà²µà²¶": 7463,
      "Ġàª¹àª¸": 7464,
      "ality": 7465,
      "Ġbo": 7466,
      "à¦¸à¦Ļ": 7467,
      "ted": 7468,
      "conom": 7469,
      "à±Īà°Ĥ": 7470,
      "à®İà®®": 7471,
      "Ġpost": 7472,
      "à¦¿âĢĻ": 7473,
      "Ġà²Ĩà²ķà²°": 7474,
      "Ġà´ħà´µà´ķ": 7475,
      "Ġà¨Ĩà¨°": 7476,
      "Ġà´ĩà´Łà´¤": 7477,
      "Ġsol": 7478,
      "Ġche": 7479,
      "Ġà°Ĩà°§": 7480,
      "Ġpower": 7481,
      "à´¤à´ķà´³": 7482,
      "AT": 7483,
      "Ġ49": 7484,
      "à´ľà´±": 7485,
      "Ú©ÙĦ": 7486,
      "ÙĪÙħØª": 7487,
      "àµºà´¸": 7488,
      "à¯į..": 7489,
      "Ġà¤£": 7490,
      "Ġà¨ħà¨²": 7491,
      "Ġà²¹à²ļ": 7492,
      "Ġaff": 7493,
      "à²Łà²¡": 7494,
      "à¦®à¦¹": 7495,
      "à²°à²ķà²Ł": 7496,
      "ĠàªŃàª²": 7497,
      "à°¯à°µà°¸": 7498,
      "à¦²à¦Ń": 7499,
      "à´®à´ķ": 7500,
      "Ġà¬¬à¬¨": 7501,
      "Ġà¤²à¤µà¤ķà¤°": 7502,
      "ury": 7503,
      "ĠCl": 7504,
      "Ġ....": 7505,
      "Ġà¤ļà¤¨": 7506,
      "49": 7507,
      "Ġàªĩàªļ": 7508,
      "à´¥à´®": 7509,
      "à¦°à¦ªà¦¤": 7510,
      "ately": 7511,
      "¥Ń": 7512,
      "à¦ķà¦Ń": 7513,
      "Ġà¤łà¤°à¤µ": 7514,
      "Ġplan": 7515,
      "Ġà¨ħà¨°à¨¥": 7516,
      "Ġà´¸à´®à´¯à´¤": 7517,
      "Ġà¨ħà¨®": 7518,
      "Ġà¥§à¥®à¥": 7519,
      "à°µà°¦": 7520,
      "ĠÛģÙĪÙĨÛĴ": 7521,
      "Ġà¨Ķà¨°à¨¤": 7522,
      "Ġcase": 7523,
      "thing": 7524,
      "à¦¯à§°": 7525,
[...]
